
/**
  ******************************************************************************
  * @file    gesture_data.c
  * @author  AST Embedded Analytics Research Platform
  * @date    Tue Jun  7 22:06:55 2022
  * @brief   AI Tool Automatic Code Generator for Embedded NN computing
  ******************************************************************************
  * @attention
  *
  * Copyright (c) 2021 STMicroelectronics.
  * All rights reserved.
  *
  * This software is licensed under terms that can be found in the LICENSE file
  * in the root directory of this software component.
  * If no LICENSE file comes with this software, it is provided AS-IS.
  ******************************************************************************
  */
#include "gesture_data.h"
#include "ai_platform_interface.h"

AI_API_DECLARE_BEGIN

AI_ALIGNED(32)
const ai_u64 s_gesture_gesture_weights_array_u64[ 3444 ] = {
  0xbdaf294a3dee62d6U, 0x3b44fe98bde78c27U, 0x3e0e600abdcf4cbdU, 0x3e292b3b3e968f34U,
  0x3ab4a635bde4dc1fU, 0x3e1bc19bbe16bf74U, 0x3d12c6163ea0a45dU, 0x3c093d26bde53a5dU,
  0xbd71c6c73db65c66U, 0xbc4f38e83e09b426U, 0x3e970a0d3ddc1117U, 0x3e23f06bbe4f9757U,
  0x3e2969b03e02bd3eU, 0x3e0432b93e6edc20U, 0x3e21f3d4be240bf1U, 0x3e20ead9bb97220eU,
  0x3e484296bcd10f51U, 0x3e123871bd06034eU, 0xbe20fbfdbd7ba56aU, 0x3c0e54ddbd4b8d73U,
  0x3e3765dcbdc0b6c6U, 0xbe449e6a3dbeaf9cU, 0x3e27849d3d5759cbU, 0x3e4f4fc0be1fdb2eU,
  0xbe2c7b4a3e99ab99U, 0x3e9ed9ff3e54190dU, 0x3dd7679cbdffe59cU, 0xbe3e1d2ebd09a22cU,
  0x3e5da6343daf149aU, 0x3d8ab413bdd3136fU, 0x3e285a453df1d772U, 0x3e660a813dd8820bU,
  0xbd0cb447bd3adf48U, 0xbe1659a13dda428aU, 0xbc1b06383e2dce72U, 0x3d1d95d53e0f6bd2U,
  0x3e26ca1c3e52b168U, 0xbd7885b53e3fb39dU, 0x3d2594cf3e152359U, 0x3e38722bbd203f54U,
  0xbe4f627fbd78305fU, 0x3d44ebbf3c86784eU, 0x3e4f6b12be03e9b4U, 0xbd897903bc678202U,
  0xbe22753a3e6c4898U, 0x3e833b43be525b4bU, 0xbe4f989c3d015901U, 0x3e0a7c633ded2359U,
  0x3e1361ef3c0b02e0U, 0xbcb653a83e418d0cU, 0x3dda4ee23c262925U, 0x3e4f95953c912582U,
  0xbe3ba812be2e66d6U, 0x3e2365e33d50c294U, 0xbdd195c4be7bf43eU, 0x3cd125b6bdf76d50U,
  0xbe4ca9ae3d9bbeb4U, 0x3d58db3ebe2e1d5bU, 0xbe1288e13d4a9302U, 0x3de1414cbe01a703U,
  0xbd1787a0be14ea3bU, 0xbda2e8f3be1d1d9aU, 0xbe059e413dc49891U, 0x3e7a21d2be656a10U,
  0xbde53507bd5387f1U, 0x3d6581a53d35f562U, 0x3dd87d59bdfd314fU, 0xbd7090e43c262a8cU,
  0xbe262be63da069e8U, 0xbca65c933c867d97U, 0xbe03a4133d71aa95U, 0xbda11a183e83c513U,
  0x3e00f6aabde96034U, 0x3d4b74873e49792fU, 0x3e3f044bbd09d8b7U, 0x3e8807453e11b78dU,
  0x3d07fd34bdb69120U, 0xbe27374e3e2ad5e8U, 0xbb81e1a0be22781fU, 0x3d243110be6c3953U,
  0x3c2f43553e168606U, 0x3e734898bde1a1d3U, 0xbdfc1307be7713e4U, 0xbe46b0ba3e87a5f3U,
  0x3e3cfc763d8a5bf9U, 0x3d9f5ab2bddd62d7U, 0xbd82c5493e08a2dcU, 0x3da9815a3e5255b3U,
  0x3d1d6ecabe2d9b72U, 0x3d5766643e08f07fU, 0x3e2ab9dc3e3d5291U, 0xbe116b4c3d989c40U,
  0x3b9a2d013e146831U, 0x3e51688cbd71e2b0U, 0xbde9aeabbe3438deU, 0xbe87cd143d590dfcU,
  0x3d5012b13e436dbdU, 0xbd72b93ebdb572a6U, 0x3d5ec1f83e0a8649U, 0x3e397e4b3e2fa709U,
  0x3d67802d3db04eceU, 0xbdf20c923d97f8f2U, 0x3d9ccf383e553587U, 0xbbc7cc9e3d227e22U,
  0x3c208bd53da34881U, 0x3e8e35f0bafb36b3U, 0xbc62766f3cf7b140U, 0xbdf4c44b3e21065fU,
  0x3e89693b3c224c62U, 0x3dfaa0bdbce7b30cU, 0x3d06878e3e275257U, 0xbd5e0f813e154b77U,
  0x3e41b005be30e7b7U, 0x3d8660353ddf974aU, 0x3d78c8d5be069052U, 0x3d2b2e3e3e1b51ffU,
  0x3dfeacf5bcf38d6dU, 0xbde74d53bb816a42U, 0x3d2db07dbe089afaU, 0x3e366983bdc2e736U,
  0xbe36bbffbe196a47U, 0xbe24e9623e28fa35U, 0x3dd1ccc0be0ff2c9U, 0x3e1a2fc6be23483aU,
  0x3e022a91be04bf21U, 0xbe1815293e427b97U, 0xbdfacf66be1d7470U, 0x3e26f63bbca0eca7U,
  0xbdfcba333e26d71dU, 0xbe08da0bbe14206aU, 0xbc154072bcee5da3U, 0xbdedf927bd47b958U,
  0x3e09f2afbe4e9b8bU, 0xbdca9163be05cb15U, 0x3d87929abde8c0c5U, 0x3de756d7be44f6aaU,
  0x3d1ca4c5be1a50d5U, 0x3e47427bbe07edcfU, 0x3d58e8fbba22e194U, 0x3e3608c8bc8fec2aU,
  0x3d66ee22be1cdd70U, 0x3e368e16be4cf7a9U, 0x3dfc84c2bdeda49bU, 0xbc2f08903db3c99cU,
  0xbd3cc6b9bd9a6e43U, 0x3daa36dd3e05a7b3U, 0x3e100a8c3da51eb0U, 0xbc9da32c3d29bc0cU,
  0xbe4580af3dd00189U, 0xbe47d723bd919e80U, 0x3dd77c843d9dc198U, 0x3df726b0bdb0e030U,
  0xbdec99033bfb2fe3U, 0xbc124f4f3dceeb8cU, 0x3d50ecefbd9a3476U, 0x3e27aa02be4e23a5U,
  0xbdd4f250bd42a191U, 0x3e012942be16f66bU, 0xbe1113383e3d07ccU, 0x3e157bf8be3b5bfeU,
  0x3d909cb0bc9e5426U, 0xbe29f9413d89edf0U, 0xbdd256503c673bbcU, 0xbdb587e2bd3e5b13U,
  0xbd821c70bcbbeb6fU, 0x3a1dff143d2e7f3bU, 0x3d20bf47bd7f081fU, 0x3a89d41abd25d654U,
  0x3dfb69583d24cde3U, 0x3e372b6cbd9e4a96U, 0x3cef9a92be0c21bfU, 0x3dd5ec8c3cd3f676U,
  0xbdb8856fbe495d5eU, 0x3e25db063da202fcU, 0xbe080a45be166e14U, 0x3c69f4ec3e40bc6cU,
  0xbd0c6f5f3e1fbeaeU, 0xbdf01dfdbe36c8a1U, 0xbe030d813d82e818U, 0xbdcb0510bd52da38U,
  0x3d42c9e03c5d4eecU, 0x3e3d33a63df7998cU, 0xbda2d5c9be4afb5eU, 0xbe31cf383e1dae9cU,
  0x3e21e916bdb83383U, 0x3d8715f8bd69962cU, 0xbe457b253cfc1076U, 0xbe3ffbcdbdea9e36U,
  0x3d8da992bd4e0800U, 0x3db400ce3c9bc730U, 0x3dbb144e3dca11aeU, 0xbe05bcf43d8c0f2eU,
  0x3e280f51be440eedU, 0x3e1649f7be1693f6U, 0xbcf266503e49fa57U, 0xbd2a960cbe136636U,
  0xb9ee0c003c507da0U, 0xbd899b9a3e18903dU, 0x3cb8e498be1f3d5dU, 0x3caa6200bdd974daU,
  0x3e0fd4c1bd81c0e6U, 0xbe001daabe032226U, 0xbe34cae7be335f23U, 0xbafca3003e256633U,
  0xb98740003e395483U, 0x3d8ca3323dd56366U, 0xbdf6d8c7be4775edU, 0x3dced482bd69cf4cU,
  0x3e29d6573e1ec5b3U, 0x3e16e3413df319faU, 0xbe1a6cddbcbc2898U, 0x3df246c6bdb3d9b3U,
  0xbe1728603d94306eU, 0xbe27a7ca3d5c74a4U, 0xbe372a673e1197a3U, 0xbe07c50abdb1583aU,
  0xbd69ddf4bd52a974U, 0xbd498600be0aacfdU, 0xbd9c2ecd3d808122U, 0xbcc372683e1500b7U,
  0xbc178000bcd26a98U, 0xbe242ddabdc4ce53U, 0x3d8d5fda3e3f1599U, 0x3d1a1d98be3eb34aU,
  0x3e3c4ab73c3a5900U, 0x3dab05793d632474U, 0x3d4cccbabd8a324fU, 0xbdf673fa3dd362d4U,
  0xbe769b2b3e7c2213U, 0xbcba9401bd49fb5cU, 0x3e5327193d2df6a1U, 0xbe4b75b83d8fdecfU,
  0x3e9685a23d659c5aU, 0x3ca0c2f4be4b2e1aU, 0x3ba5e8b3bd5a859cU, 0x3e05bb523e16114dU,
  0xbdb2c71b3db2d91dU, 0x3ca354213d82cb77U, 0x3e92a0113e3bf595U, 0xbd877466bd0c5f5cU,
  0xbe6a4e543bc733ffU, 0x3d5aff31be0f5304U, 0xbe08c0453c425ed7U, 0xbd4726343e7a76bfU,
  0x3e06f1433e36d553U, 0xbdf2deee3e0538c6U, 0x3db6e1163e0343b2U, 0xbcfafea23dbb6fd7U,
  0x3e3b34223df774cbU, 0xbd309b3e3dabb488U, 0x3e9b9d25bd718958U, 0x3dc27d983d3a388cU,
  0x3d9e89f43e9e314eU, 0x3e577baebd746442U, 0x3e3bd0983dd9159cU, 0x3d99cd74bca3565eU,
  0x3dffab56be1c55f3U, 0x3cb5a797bd09479eU, 0xbe5426e13e8f8851U, 0x3e0b2ff23e2e6817U,
  0x3d3b8c05bd83e61fU, 0x3dce593dbd0f38feU, 0x3d8677c23dae9932U, 0xbdae3f473e0febc1U,
  0x3e20e671bdb57db3U, 0xbe130483be2600c3U, 0xbd9210003ba384c0U, 0xbd33d5d83dd86666U,
  0xbe454b4d3e2917fdU, 0x3d42b428bdb6a8adU, 0x3e3aa9373d3cce4cU, 0x3e4338ad3d2ba80cU,
  0x3d9ae4cebe020d90U, 0x3c1ac800bd958fa0U, 0x3e37d281bda32fcdU, 0x3df4f04ebdcb120dU,
  0x3d5cb98cbdb18e9aU, 0x3dcc6a82be1465aaU, 0x3dc7e35abdbcfe2dU, 0xbd8aa4d43cd84468U,
  0x3e0f978dbe15931aU, 0x3ddea3da3e1c2443U, 0xbddcb320bdccd2daU, 0xbca467003dda306eU,
  0xbdfb6fa7be236970U, 0xbdaab02d3dde6b32U, 0x3c917698be49e90dU, 0xbd1f5fd8be262f6aU,
  0xbd979394bc7523d0U, 0xbe0ff17dbe371ae7U, 0xbcf55a18bdc96f0dU, 0xbe1897babe3c16c0U,
  0x3d22e7d83dcc265aU, 0xbe0e6310bca13230U, 0x3d96d1863da02aeeU, 0x3d61b7e43e4c2303U,
  0xbe0679f03d928f8eU, 0x3dc20db23cc4cdb0U, 0xbd8eb92cbe35f3e3U, 0x3de30ababdf185a7U,
  0xbd601522bde32443U, 0xbe2cf556bcdbd1d1U, 0xbd48c0813e1966a3U, 0x3e065781be7f418fU,
  0xbd54eacc3e335cd7U, 0xbc3da4333e64305fU, 0xbde6ac45bdafab93U, 0x3c8d9ff3bcde002dU,
  0x3e30d6593dd94f14U, 0x3e5009a53d6c908aU, 0x3ca118493e12c968U, 0x3de869bc3e2b8c31U,
  0xbdd7d917be8fed49U, 0xbe537afdbe143814U, 0x3c15faf2bdc1fdc5U, 0x3e2608f13cdeea0cU,
  0xbd09caa13dc32b9bU, 0xbe04da043e74d4efU, 0xbdd6956abdd01681U, 0xbe8def4dbbd1eba3U,
  0xbb8557683df39e1bU, 0x3e10a0f1be2285c0U, 0xbe00bb5ebdd6dc4eU, 0x3e21e132bdc3d1abU,
  0x3d22890abdde2eadU, 0xbda4a101be334688U, 0xbd27f2793e689e25U, 0x3e73ffc13c5c97ccU,
  0xbe619195bd84b18eU, 0xbaaac0febde66578U, 0x3af36c5a3dd3a81fU, 0x3dbc1cac3c31fb72U,
  0x3decbfadbdd72779U, 0x3e67da1abe777275U, 0xbdf41c18bb11d65cU, 0x3c98ba6b3e1cfe2aU,
  0x3e56d655be5915b8U, 0xbe45a21a3d3b206aU, 0xbc964118be088c70U, 0xbe4a7cb73d7fcc9cU,
  0xbe204b6abde2f707U, 0xbcb786d03db02012U, 0x3d2eba683debc542U, 0xbe224b90bda28880U,
  0xbdb5b90dbd77f28cU, 0x3e02ab273e077ae3U, 0x3e4a190d3daf6af2U, 0x3e0903633e2a3ac3U,
  0xbe318397bd888e0cU, 0x3d0ce6a8bdd335edU, 0x3df2afd2be26ec6dU, 0xbdbd0f9a3d9bc8a6U,
  0x3e1fb1473c3858a0U, 0x3d6836b4be131916U, 0x3b0db2803e4ab621U, 0xbdbe1fc7be036186U,
  0xbd6bd0743d6f62a4U, 0x3e1d5f6dbc6ade30U, 0x3bcbe6603dc635ceU, 0xbe2fe0fd3d54b404U,
  0xbcdce8503d355db4U, 0x3d9c3c8e3d91a4c6U, 0xbc3deea0be0ebefdU, 0x3d39ba183e47a9a9U,
  0xbe2b022a3e470e87U, 0xbe34fbe73e3c81fdU, 0xbd226d003dee4412U, 0xbd93b9343cfb64b0U,
  0x3d814a62be213ebdU, 0xbd79c2583da4ec52U, 0x3ca699d0be2abbddU, 0xbdfe653a3cf7e780U,
  0x3db108063e074c17U, 0xbe20e120bd6693ccU, 0xbdb2da47be41f3b0U, 0xbe1881da3d2373f4U,
  0x3d86666e3d4298ccU, 0x3d025780be27802dU, 0x3d63561cbdffc96dU, 0x3ce52800bca1cb30U,
  0x3dea7b6ebdb03e67U, 0x3d94fe463e0aad91U, 0x3d7a15a4be3d51cdU, 0x3e2aea873d1e5e40U,
  0xbe4af80dbe0716c0U, 0x3d484d8cbe0a31eaU, 0x3e1fe8fdbddb401aU, 0xbe25f51a3dc0b00eU,
  0x3dc47c1a3cb1f480U, 0xbda476b3be37df93U, 0xbdb7d06d3d37aa68U, 0xbe28f7363dd79312U,
  0xbda2aa673c1902d0U, 0x3e488763be44a1e3U, 0xbd0fefa8be274af3U, 0xbe3d45c73e31f143U,
  0x3c0f65d03e010601U, 0xbe11a8a3bd5575ccU, 0x3d6a2e1cbe2a287aU, 0x3d956d5a3d5bccc4U,
  0xbdb57ec0be21baf3U, 0x3c661ca0bdee7ce7U, 0xbe1d9bf6be16a4cdU, 0xbbad7a60be298493U,
  0xbdcb1e00bddafea7U, 0x3da9f0323d97bd12U, 0xbde56f9abe1c8930U, 0xbc26b900bd4172d8U,
  0x3dc884fa3e41d08dU, 0x3e1eb24d3c69a060U, 0xbe179c3a3d8683a6U, 0x3e10e40dbcf6bfe8U,
  0xbca088683ddd7d62U, 0xbdaa2a273ca51c80U, 0x3cb763803dceee66U, 0xbe3e24bd3d3284c0U,
  0x3cb804b03b965a00U, 0x3e4b15b33d952b1aU, 0x3dbec4d23cafd780U, 0xbe11672d3d849122U,
  0xbc21cc00bdabfc53U, 0x3e4684573e1bb019U, 0xbdee8ba7be145866U, 0xbe372577be27604aU,
  0xbdf2b333bd7dafb4U, 0x3ca97ed03dd5ab02U, 0x3deb3b26bd93285aU, 0xbe255ad63e31d8d3U,
  0x3e0e65a9be3edae0U, 0x3dd7245a3e2bad61U, 0x3ccda330be1bba1aU, 0x3e06d6773d50038cU,
  0x3e2280e13e2f74e9U, 0xbe374b903cdd4fd0U, 0x3cb5d130be0eac6aU, 0xbcc9aa983e47ec71U,
  0xbe397a00bdcfee13U, 0x3da891223c0b0aa0U, 0xbd5580343d9d5d3aU, 0xbdd01b2d3d9afd52U,
  0x3d847972be13d110U, 0xbd7cc0683c241960U, 0x3df408a2bba3b860U, 0xbdef31fa3cc364e8U,
  0x3e3000513e0e0637U, 0x3d0dd5a8bc833680U, 0xbdb2230dbe122cbdU, 0x3e1e12e1bddf3a73U,
  0xbd91774cbd3d3fb4U, 0xbe13b3a3be02b856U, 0x3e31e401be078640U, 0xbe0c5c9abe1695abU,
  0x3cf25574bce8c13eU, 0xbd0f9b393e224e85U, 0xbe756ecbbdea2b0bU, 0x3deda6253de0b2c2U,
  0x3e208cf13d835423U, 0xbd82c1423d15579eU, 0x3d61fb693dd64054U, 0xbde74fd4bcd6d94eU,
  0xbc647df63d422c38U, 0xbc9033013de92b86U, 0x3e47d928bde53ae9U, 0xbb0281a9be783c4dU,
  0x3dd3d0fe3e24bbecU, 0xbd97716fbe39559cU, 0x3d83140ebdb59c98U, 0x3d374eb03c9ad252U,
  0x3e59ea66bdc471bdU, 0xbd8bea49be2b84eaU, 0x3e0289383db96329U, 0x3e4fa7b63d848cd8U,
  0xbe114eeebe3cc85cU, 0x3c96e0a43d23a437U, 0x3e86a2723d9ce822U, 0x3e054cb23c843c11U,
  0x3e0954fd3e0e16a5U, 0x3e4fcf973de0c858U, 0xbe4f542b3def9e0aU, 0xbd3982a93e644408U,
  0x3de891bcbe251214U, 0xbe0b8bbcbe5300dfU, 0x3d99ec59bdd855cdU, 0x3e2da0fe3bd89cbfU,
  0x3c894706bdacc77aU, 0xbd178666bdafeb20U, 0x3e86c2aabe4c30e0U, 0x3dccfbfa3bcadd6bU,
  0x3c843068be38fd5aU, 0xbe383ecdbe2ab12dU, 0x3dd883ba3e1e24edU, 0x3dd4fd523cfa7a68U,
  0xbe3947cabd588bccU, 0xbd8c94263d01b7f4U, 0xbdc5abb33d19a8e8U, 0xbe0d0813be30a9d7U,
  0x3dfa50d23e00571dU, 0xbd0bd1343d0bbf68U, 0x3d823bc63d58481cU, 0xbc2121d0bce2b018U,
  0x3d13e0683cbbcf98U, 0xbd85022cbe2d30bdU, 0x3e3cbda73e1465d3U, 0xbe475a13bc5144a0U,
  0xbdce9e873e07d60dU, 0xbe429da3be2c2b46U, 0xbe28d5433d3e8540U, 0xbe0943adbe14f94aU,
  0xbd824d5a3b3eee80U, 0xbdd0d8d3bdd48533U, 0xbda0e2e03d41dac0U, 0x3dc32d6ebd45f418U,
  0x3dadbce2be10a5caU, 0x3e4abe2d3d196618U, 0x3e1cc7433d4abb40U, 0xbd8b00e63d620b44U,
  0xbe1fa726bc15c0a0U, 0x3e2b66d73e0ebe23U, 0xbdf6efd3bdf4cfcdU, 0xbd74a5343c9638d0U,
  0x3dad95d23e32f8d3U, 0xbd72b3f4bdae03a7U, 0x3d379dcc3c1d3360U, 0x3c28a8003c8ea918U,
  0x3d43fcf4bc43f3d0U, 0x3dacf342bdb5b825U, 0xbe8457383d8c6d70U, 0x3e21a6193d9be2a5U,
  0x3e67b4e0bdef13d8U, 0xbe421759bdfa0110U, 0x3e0b4225bd84453cU, 0xbcb4e7f73c09bca0U,
  0xbce54364be422626U, 0x3e0a55a8bd98f5a4U, 0x3d0178ff3d7f499bU, 0xbdd667433b62adafU,
  0xbd72980d3dfb871cU, 0x3e1b5e20be5d869fU, 0x3da3ecd7be052249U, 0x3deb78303dc6e4b6U,
  0x3e37f794bcd5e2ebU, 0xbddfd7debd5e6962U, 0x3e046c4d3e171833U, 0x3e4b2e8ebd197256U,
  0xbe68e0463d9e9665U, 0xbc55507f3e49e513U, 0x3e87ce10be91950aU, 0xbe5332023d785f40U,
  0xbe4afb62bd0a1703U, 0x3cecd9e6be8901b5U, 0xbe3d506d3e1bcba7U, 0x3e0ae7a3bdcd1dafU,
  0x3d6470543c23e4b5U, 0xbd920d633d7a70b8U, 0x3e2d14483e3bc792U, 0x3d77eccebdfd78dfU,
  0xbd11545bbdd04368U, 0xbd5283303e017dc1U, 0xbd81b4c8be59d430U, 0xbd8aa6203e2e56e9U,
  0xbe414e6cbd5edb5aU, 0x3e59b720be777a81U, 0xbdb02950bc63466fU, 0x3d3d86d13e017da0U,
  0x3d8a820ebe080ecfU, 0xbdb6bf9d3dd3248cU, 0x3e60059fbd92ed67U, 0x3e784d213b09b77fU,
  0x3cc4a2843d141674U, 0xbdd389103e784adeU, 0xbd145781bcabb52eU, 0xbe3175ce3dd51fb4U,
  0x3df9ecf63cf24a8aU, 0x3e8aa6c7be0915ccU, 0x3dedfb22bdf0e7b4U, 0x3e573d653e915221U,
  0xbd3b504dbe8b854dU, 0xbe143b243d4d372dU, 0xbdba99593df18491U, 0xbd5af1a1bd999e9dU,
  0xbe7dece03d7d81c7U, 0x3e52fc9a3e432632U, 0x3bb3b920bd3dd305U, 0xbe230119bd468d27U,
  0xbd51aa423e679df9U, 0x3ddb5c7c3d490607U, 0xbe8cae0c3e11d069U, 0x3e1880f73d7e7f70U,
  0x3e5b50f0be542012U, 0xbce218ec3deae07dU, 0x3e667690bc9def69U, 0x3d3a1d20bdee6aeeU,
  0x3c85d4be3e278bbcU, 0x3b00636c3e5d87c6U, 0x3d676268bd6a8229U, 0xbe5481643d295d02U,
  0xbdce6bd43e4e993bU, 0x3e66b746be234ec2U, 0xbd0c0d003da8c71dU, 0xbd17c35c3d9383e7U,
  0x3e2dc0c3bcb35068U, 0x3d940bc6be0a3040U, 0x3d54058cbe0c33e0U, 0xbca43a68bd7a4228U,
  0xbe3ea970bdd86b1aU, 0xbcfc8f30bb9d2940U, 0xbca0d8983d8c0606U, 0xbd895ccc3e4be9cdU,
  0xbe188a0d3c9d9500U, 0xbdece8dabd900eccU, 0xbdc7f7adbe0b4e10U, 0x3df48126bd81f44cU,
  0x3be45b403d49df80U, 0xbe444150bc890e30U, 0x3df6e6aebdeeacadU, 0xbcb9c9b0bd70d24cU,
  0xbdebac00bdaf6a1aU, 0x3dbd17c2be279e46U, 0xbd8228ccbdc4dc40U, 0x3d806b46bdd71ad3U,
  0xbe43fe67be147ad6U, 0xbe429a533def641aU, 0x3dfe6842bc0a36a0U, 0xbd5a90803d2ad8d8U,
  0xbde55e53be447287U, 0xbe05b5c6bc856b18U, 0xbe385c6d3e3fb67dU, 0x3ded8ba23e47e149U,
  0x3aa4e9803d6003e4U, 0x3db82f1a3de1c78eU, 0xbd8ce366bde4d173U, 0xbe4b0b2dbe0dcce6U,
  0xbe19c5d3bcad3518U, 0x3dc0f9fabe42066dU, 0x3e450007bd1cdb4cU, 0x3d875dbabe468c00U,
  0x3e1a6db1bdf5ffa0U, 0xbdf878d23dd0f81aU, 0x3d3a3a3e3ab500d7U, 0xbcac20893cfe6376U,
  0xbd95882abe169951U, 0xbe72a8b53ca156a3U, 0x3e59b86f3e1322efU, 0x3e2d6a7cbe4e0cfbU,
  0xbe07143f3e067de1U, 0x3e8220df3e326611U, 0x3e660ed5bde32b91U, 0xbe3ede553e47df02U,
  0x3e80667e3e727d0fU, 0x3e043458bc91b23bU, 0xbe6936623e59327bU, 0x3e3bd4ccbd8d6d86U,
  0x3d9a5786bda23731U, 0xbe794f3e3e5573f0U, 0x3d23a7dc3e491ad6U, 0x3e3af7723dd535e7U,
  0xbe0d03193e457f35U, 0xbb6af2a83e50829cU, 0xbe14c9fcbe70386bU, 0xbe1d76533e81a5ccU,
  0xbcfcdcea3d447028U, 0xbc405dba3ddd636fU, 0xbe2864e43e812a51U, 0x3dd527663e576d95U,
  0x3debe841bda181e7U, 0xbe816b3e3dcf0d40U, 0x3e324f6f3e2740eeU, 0x3d551dafbd3f98e3U,
  0xbd524a553dfa1216U, 0x3da370ad3e2b099cU, 0x3e0e361fbe0ec2f7U, 0x3da9cccabd3c614bU,
  0xbd651e8c3d011956U, 0x3e5062593d8f895dU, 0xbe15640bbe06c94dU, 0xbd85082cbe30f553U,
  0x3cd1c080be2e3e1aU, 0xbe20135a3de58f2eU, 0xbde56f0dbc9e9e30U, 0xbdc2317a3c4e59d0U,
  0xbd9a501a3ca28780U, 0xbcde9f18be425fbdU, 0xbc812a983dc70a32U, 0xbe18c5563df91deeU,
  0xbc9883503e3041adU, 0x3bf137403e4bca63U, 0x3e2d7181bdff574dU, 0xbdf4f16dbce0da80U,
  0x3de626063d39210cU, 0x3de896863d9bc81aU, 0xbcde06503c43d230U, 0x3db33d7abe3b28adU,
  0x3d98b5623e143a4dU, 0xbdb7cb7a3e16a753U, 0xbe2f5ac7be2c359aU, 0xbe27f4703dbae42eU,
  0x3e026c41be2175eaU, 0x3d9322d23e28860dU, 0xbe19d90d3db20246U, 0x3dc25f423d7ac0e4U,
  0xbcd43050bdc5f560U, 0xbe4176bd3e181d51U, 0xbe4a92fabd0bd300U, 0x3b172400bddab87aU,
  0xbd8a7e80bbb6bd40U, 0xbe0dca26be1b1816U, 0x3e0a222dbd86302cU, 0x3de53a0e3d26254cU,
  0xbdb2d53a3c8f9130U, 0xbe2a517dbe04b816U, 0x3d64f4443dea08c2U, 0xbdf83993bcc0d300U,
  0x3c7c3af8bd87c67aU, 0xbd902e923d5f3aa0U, 0xbe41deb9be0650edU, 0x3dd0045bbc9aba90U,
  0x3d8898503d8f2c64U, 0x3ca30a88be006d5dU, 0x3e3913643c2c7111U, 0xbc9aa0483c95d138U,
  0xbe2b3c8c3e02ed8aU, 0xbe31a1cdbe0955c9U, 0xbe4f78093c24c370U, 0xbd9a42723e258244U,
  0x3d202d0a3e1dc23eU, 0x3df51c7cbe42f5ffU, 0x3dff75843e3a6f76U, 0x3deb66dfbd2de154U,
  0x3e3af7cabe4894b2U, 0xbe24c82cbe4643faU, 0x3df2b6333df35dfcU, 0xbd3b5a143d958c44U,
  0xbdfe5f1e3e02a60aU, 0xbe43cce33df70708U, 0xbdfa6458bdfdc445U, 0x3d715a283dc3cb7bU,
  0x3d9cda8bbd5451b0U, 0x3e17bbce3e3531eaU, 0xbd4562e43db1a99fU, 0xbe1c0929bcc37290U,
  0xbe3d167f3df06b84U, 0xbdc5ff583e2880caU, 0xbcc528cc3e17357aU, 0xbd787d94be1a9d95U,
  0xbdaccdf8be082ce3U, 0x3d1758b23d31f9dcU, 0xbc54164fbdbf6805U, 0x3e2eb40a3c03e828U,
  0xbe40455abe1e31a9U, 0x3d8609a4bc1af120U, 0xbb314eca3d80bf72U, 0x3e2d8bb83d67cf96U,
  0xbe722e073ca89274U, 0x3e46a3313c093f9bU, 0x3ce56d2f3ddb41f9U, 0x3e0b311f3e0ac8dfU,
  0x3d108214be1529c2U, 0x3dbc52c9bcad47feU, 0x3d3d03a23dc6063cU, 0x3d9296163dbec7a1U,
  0x3da9c3a7bd07592aU, 0xbe7c26febd513551U, 0xbc80827bbc40a4e1U, 0x3e11157cbe24cb3cU,
  0xbd84a816bc58332aU, 0xbd78809bbe09d600U, 0x3d7d0f08bd0f2ee5U, 0x3ab9d22bbca773acU,
  0x3a68f02e3e28815eU, 0x3e1bb4b2be1652a7U, 0x3da3be68bd99d08eU, 0x3de3cc9e3d51efbfU,
  0xbda929c03d33099aU, 0xbe175ce53c19579dU, 0x3db6ac583e5e6bfdU, 0x3e0eab1ebd2b60f9U,
  0xbe223067bb0d86d1U, 0xbe02139f3e29f511U, 0xbe0ee5ad3ddf05b3U, 0xbb45aaaf3d3a5a62U,
  0xbda3a15a3c7e2c16U, 0x3e63e857bce6fedfU, 0xbda4822c3dc4c2a1U, 0xbd167f3d3e3248a7U,
  0xbcda1f7d3cc56349U, 0x3d766d8cbd99be68U, 0xbe31cb563d9b6852U, 0x3e9c7792be76a8e0U,
  0x3e0c011abd9e55f8U, 0x3cf6f4e83e1680b1U, 0x3e61c0fbbd07624cU, 0xbdff53c1bdc431aaU,
  0xbe4635a53e0dc616U, 0x3e751db73e021215U, 0x3e0ec4963d22106eU, 0x3e1065a93e157133U,
  0x3dd7dd30b89e0d14U, 0xbe1732f8bccee9fcU, 0x3dbb49503dbe8b21U, 0xbd9167a83e15ae20U,
  0xbe1be2aabd82663eU, 0xbba6f7103e1bbaa0U, 0x3c74af80bdc52597U, 0xbe3975af3d54c432U,
  0x3d440e2e3e309dadU, 0x3d7ee0b3bd44afd2U, 0x3e32dfc33de0f0d9U, 0xbdfdfd8c3e2d1bbbU,
  0x3e662bbb3d3fc264U, 0xbcb02f6bbe55d550U, 0x3d3070f63e9afba7U, 0x3e40aab03bcb859aU,
  0xbe4df793bceeff2bU, 0x3db7a2f53e93d6a5U, 0x3e878c4b3dbbcc7eU, 0x3d961710bccd0592U,
  0xbe1695413e25fe4dU, 0xbcf86a09bd48a99cU, 0xbe220bdc3e25441eU, 0x3def23273da2168cU,
  0x3e2de50f3cb64566U, 0xbca850963e3220b5U, 0xbe4e0737bd8438c0U, 0x3e2f9f97bc10e801U,
  0xbc399a1ebe030fd2U, 0xbe2b9b963e3c5eb1U, 0x3e45489dbd10a1ccU, 0xbe0bab46be1867c3U,
  0x3e3d34d3bdc2db8dU, 0x3dd11ca63d944d52U, 0xbe2779f33e45047dU, 0x3da4160ebdb01e1aU,
  0x3e1884e3be327900U, 0x3e1e10ddbe22386dU, 0x3e01cdc1bdc2eaadU, 0xbe2cf160bd100f74U,
  0xba3c4600bc791d00U, 0xbaeded003e4a70a7U, 0xbe48a02d3ddb6c72U, 0xbe2fd7a7be386053U,
  0x3de2b946bc769a30U, 0x3cde4818be0357f6U, 0xbe0f42263c54b260U, 0xbd0799d83e08c941U,
  0x3c23f2a0bd890134U, 0x3d85a4a6be1c41cdU, 0xbc2ffdd0bd090c74U, 0x3e4749a33d42ecb4U,
  0x3e2b2941bc5be5a0U, 0xbe1c37e33e093761U, 0x3d030e80bd020ff4U, 0x3c483d60bbad1cc0U,
  0xbde628c0be1652cdU, 0xbd4968c0bda89bcdU, 0xbd7ff8d83de65a8eU, 0xbe4b9d8a3dfd05b2U,
  0x3d7b46843e245913U, 0xbcbfcb50bdf80660U, 0xbce4e350bd4a3240U, 0xbe37dcda3c814f50U,
  0xbe153a83be1383c6U, 0x3d9e17a63da1cbceU, 0x3e8243543c60e200U, 0xbdc6a830bc547619U,
  0x3d14a4ff3e00d7d7U, 0x3e64a3c53e2c8173U, 0xbbd272713e61a2b1U, 0xbd9dc8673e1d385dU,
  0x3e43ac233c36cdc9U, 0xbdbf7ee03e625168U, 0x3dfa71be3e562aa4U, 0x3e92ca893c8304c3U,
  0xbd4b3f8c3d41eaa8U, 0xbd4c031e3e0f5d46U, 0x3dfe1cf73e563c4fU, 0x3e1fdcfcbcccd1e0U,
  0x3e3f8c78bd00f09fU, 0x3bca71ea3d832e56U, 0xbdd92b89bde38b2cU, 0x3b2c4ef83d3257c6U,
  0x3e171fe13db6c273U, 0x3e167b69bc36bd82U, 0x3e58b8023d8af0f3U, 0x3e1876003e21e970U,
  0x3c9610433e04eeadU, 0xbdeba5b5bb9a8666U, 0x3dc04abe3e617d0bU, 0x3e7e20183dbe0dcbU,
  0x3e03055f3e82ea06U, 0x3e75076a3e33050eU, 0xbc8b1c12be0a8290U, 0x3d3974403ab0c9eeU,
  0x3e7f198d3e1d184dU, 0x3e4d635cbccbf8c3U, 0x3dc76faebd45cc85U, 0x3d8ec4a43e373150U,
  0xbdad1b15bd8fa563U, 0x3e2de3e7bc8bf704U, 0xbca1be1f3def66bcU, 0x3e80da103dbc0eb3U,
  0x3e289e84be38d367U, 0xbe39e8f4be0a609fU, 0x3d1b0161bd2e91ebU, 0x3df7b97c3de7d8f8U,
  0xbe81d71fbdc71af6U, 0x3dbd2f8b3e0c34fcU, 0x3d652a12be8c0740U, 0xbe4ad4573e0d851aU,
  0xbde714293e18d54cU, 0x3e694b07bd002983U, 0x3df773bf3d036c49U, 0x3cc455c03dfe3021U,
  0x3e31a7333cbcc52eU, 0xbe3beb7cbe509a5fU, 0x3bc385083e814111U, 0x3ce97c72bc44205aU,
  0x3d51250a3d6dd02bU, 0xbc68f20abc4d1ca1U, 0x3e893b49bdd0a09bU, 0x3ceb820ebe0f91c2U,
  0xbe4d48f5bdc661f7U, 0xbc978f61be291465U, 0x3d0c0e75bdd912cdU, 0xbd8d3dff3e735303U,
  0xbd797acbbe3517d9U, 0xbe5ccb8ebe186ff6U, 0x3dda5b333cdd65c5U, 0x3e26b7eabd71ee30U,
  0xbe28e29d3e23c328U, 0xbd4b25bcbd9be93cU, 0x3e4167a03d87b59dU, 0x3d39480d3c074ea0U,
  0xbdca34993e60d973U, 0xbd3f397e3dddf52aU, 0xbdac087b3d10c1b6U, 0x3e2acd003e6e8360U,
  0x3e5ecf6cbe6bec75U, 0xbe06093b3d98452fU, 0x3dde04873d4a4ccbU, 0x3e477ccf3e355b6fU,
  0xbc68b6de3d2344a7U, 0xbe2ec28d3d6839bbU, 0x3c24edbd3de86e66U, 0x3d4004fdbe30d603U,
  0xbdb77a14be39c471U, 0xbe39ffb1bdb3a22fU, 0x3d763f4dbcaf1403U, 0x3d388b8bbdcbf096U,
  0x3e0539853aaf1612U, 0xbdc887f6bd74a9e5U, 0x3e0597f0bdf96aefU, 0xbe3ca801be0f941eU,
  0x3e2db92bbbc20b2aU, 0x3e32e23a3d89b2c6U, 0xbd275811bded3c16U, 0x3e061f7bbe02e2f7U,
  0x3dca0b1f3d852716U, 0x3d8193963cc6c261U, 0x3e18751fbe2f53a9U, 0x3e27e3f0bde165e9U,
  0x3d8961d23bbc4184U, 0xbd9ee2fc3dc59793U, 0xbe3a3c4d3e38ab7fU, 0xbd514021be44a85eU,
  0xbe3b5fcbbde54d8eU, 0xbe015b3abe024ba5U, 0x3e2a7d633e1e9dd5U, 0x3d9176f2b9ac4698U,
  0x3d7176ff3c9210f6U, 0xbe43f4c83d99985eU, 0x3e108b693c47c7fbU, 0x3de8993fbd364b61U,
  0xbd58a82dbc242caeU, 0xbddab0893d7329a7U, 0x3d9f96eb3ccd02bfU, 0x3e0b56273cbc2700U,
  0xbe4324fabc6ad460U, 0x3d98b0cebe068140U, 0x3cbc8ae83e2f85c1U, 0xbdbf4bf33c5c52d0U,
  0xbda634e0bdc2495aU, 0xbc8c4950bd4caed8U, 0x3d1d42e8be3eb1daU, 0x3d471b183e394877U,
  0x3bf95e603c1118d0U, 0x3e1d37373c93a9d0U, 0xbe25721abdf619faU, 0xbc373600be1f0fdaU,
  0x3e4a0a57bdd2b6f3U, 0xbd8abc60bd2cc000U, 0xbe43fe533d0f17d8U, 0x3d8128eebc29fe30U,
  0x3d80c97a3dd7645aU, 0xbb9152c0be2c02d0U, 0x3d0a0c183c28b300U, 0x3d65af84be4cb0fdU,
  0x3dc9b6fabe3d62a0U, 0x3dd48e86bdf31b07U, 0xbdd1acdabe079cc4U, 0xbe115dc6be3ffe3aU,
  0xbd54c7183d847f86U, 0xbe27bc7abddef113U, 0x3b1f7cc0bd78aea8U, 0x3c6046603e21f797U,
  0xbe4bee93bdabb6edU, 0x3e01c8593d2cad98U, 0xbdf9240d3e1fe46dU, 0xbdcf1400390fd800U,
  0x3e007653be1de94aU, 0xbd7539ccbe1caa8aU, 0xbd18014cbe3699cdU, 0x3d9efc123e1df65dU,
  0x3b61c000bdb93f33U, 0xbca699e83e36c249U, 0xbe47eb83bd287340U, 0xbe3242dabe39e220U,
  0xbdbae2e73cc299e8U, 0xbe1423fabcebe7b0U, 0xbe15eb563e2670c7U, 0x3d80f566bd9a40a7U,
  0x3d8431d2bcbf33b0U, 0x3e2ff077be439b90U, 0xbe3a0d5dbe23897aU, 0x3e1162d33e131149U,
  0xbdeb4027bdbe9a33U, 0xbc8d9468bdf4afedU, 0xbe395ba33e1b1509U, 0xbe3d5b0dbe1df2a0U,
  0xbd7022f43e2cbd7dU, 0x3d86b5a2be1f8e50U, 0x3e2159d13e354347U, 0xbd880b54bd8bfae6U,
  0x3da07cd23a5a9a00U, 0xbdfca3ed3e28d7e1U, 0x3e47c4d3bcf19600U, 0x3de51ba2bdaf5e60U,
  0x3e0ee7e93b40cc00U, 0xbbad6ac0bdda3667U, 0x3dc49ec6be13cc1aU, 0x3ced33303cecba98U,
  0xbdf7eb60bdd1e73aU, 0x3ceb0598be0e7aadU, 0xbd7966f43b518cc0U, 0xbe336f3abe29ddd6U,
  0xbe3798c3be3d9ac0U, 0x3e1dbee7bda1391aU, 0x3e4141ed3e3b1f33U, 0xbd02494cbd7a6fe8U,
  0x3e43c7673d2c844cU, 0xbe40c4f03e0443e9U, 0x3e0a4ccb3e5b9e39U, 0x3d3a62cabda0b858U,
  0xbce51e1ebe3b998aU, 0xbd6c59e83e86ed6bU, 0x3e8564e93e249650U, 0x3df77f46bd8c512fU,
  0x3de24c773ea19673U, 0x3e4bbec4bb8000eaU, 0xbdfd7849be4f822cU, 0x3d71f8263e0e0308U,
  0x3de241733d37a40fU, 0xbcc8897e3d646e2aU, 0x3e2c40d93de7a597U, 0x3ea09caf3e1688f5U,
  0xbb511603be239cbaU, 0x3d7e72063d1a3c17U, 0x3d9e5eb9bd7988ecU, 0x3d0a1c1dbe436833U,
  0x3cbe81b9bca06aa9U, 0x3d244b013e29410aU, 0xbe0261a7be330dacU, 0xbe5a75833e97f8a2U,
  0x3deaf8133e47629aU, 0x3d7edc8e3dfde79fU, 0xbda97bf43e0fe13bU, 0x3df913a43e5e4f09U,
  0x3e2872ebbbbae25eU, 0xbb5a8c2b3ea1da18U, 0x3e659f113e57dfa5U, 0xbdd6c37ebd144bfaU,
  0x3cd7f89e3c77411bU, 0xbcf34ce63e7d2e3dU, 0x3e4a6c90bd88b5faU, 0x3d0670e33e41caeeU,
  0x3e40b8913dd07e3eU, 0x3dea78d7bd841dd6U, 0xbe16c6803e9375dbU, 0x3d1d7d983e828d32U,
  0xbde8172d3dedaf92U, 0x3e13fc21bde410a7U, 0xbcb7ca683e0dde77U, 0x3e16e61d3a7a8300U,
  0xbd2478a83e131b01U, 0x3e232ff93e2a0587U, 0x3e3cb5a9be4b61c7U, 0xbe323783be433c2aU,
  0xbe2a383dbd808e7aU, 0xbe055e00be48089aU, 0xbdd4e4673e453ed9U, 0xbddf77803e48c643U,
  0xbd9e1cf33cf9ead0U, 0xbe1cb35abd96a2e0U, 0x3e22cf09bdea318dU, 0xbdd862533d25e018U,
  0xbe262456bdf5cfe0U, 0x3deb711abd6e86d8U, 0xbdd58e9a3b1ba180U, 0xbc8fd8183df0bf5aU,
  0x3df9076ebe34063dU, 0xbca65db0bd93fda0U, 0xbe480527bd05930cU, 0xbdb2eadabe0ac336U,
  0x3d1585e8bde2f78dU, 0xbd9441daba6f5600U, 0x3df182123e0f7fe7U, 0xbdd74c9abda35ee0U,
  0xbcc6c150bd9ab407U, 0xbd974bd4bdfc19d3U, 0x3cc1c9d03e34cc49U, 0x3db58b6e3ddc8c32U,
  0x3e3ce559be0d00d6U, 0x3e0530e93cd05b98U, 0xbd2a33403e15a1c7U, 0x3ca07e003dab432eU,
  0x3b5514003e102833U, 0xbde285353e1b0c48U, 0xbdc95be33e3fd457U, 0xbda596f33d02c06aU,
  0xbe41ddc63bca6e84U, 0xbce3c9803dda7acdU, 0x3d218f3bbd50ca5aU, 0xbdcbafc43cb0d8b2U,
  0xbe422ecd3df461a5U, 0xbd174ab43bfda644U, 0x3e09f24b3d3090d0U, 0xbe2f77e03e570a52U,
  0x3e6263923b825889U, 0x3df18a373d88c92eU, 0x3dfc9995bd1a3915U, 0x3d369c4abdcc7cadU,
  0x3db9d3d9bdab79daU, 0xbe0b2cf9bd0a116cU, 0x3d12ee4cbe600cb0U, 0xb8542ab4bd33ee95U,
  0xbcf7686e3e8af5e2U, 0x3e4776da3deeb028U, 0xbd825d97be575368U, 0x3d0bd606bdee239dU,
  0x3e8232c8be16e276U, 0xbc847848bdfb9d09U, 0x3d71021e3df797ceU, 0x3d2cc3cbbdfde2dfU,
  0x3d944e9e3e00728fU, 0x3cfb15113e5977b2U, 0xbd7c0053bb34a4e4U, 0x3cf7d8febe149499U,
  0xbe46a0a63e585f5bU, 0xbd8beb27be159c89U, 0xbc79bf523d87e730U, 0xbe12b17a3e5e35c7U,
  0x3e81dc5a3c1fec58U, 0xbe59df8d3c834b92U, 0x3dcadece3e7cb174U, 0xbe0d79c0bcf10530U,
  0xbe1e5d0abe39245dU, 0x3caa8a303e3ec37dU, 0xbdd0e267be43c153U, 0xbe0f4bb03c409c00U,
  0x3e076b63bbe11a00U, 0xbe45c910bdd596c7U, 0xbd88772cbde23db3U, 0xbddb65fabd995a40U,
  0xbe32540a3dabea06U, 0x3dee39c6be07ed2aU, 0x3dd222c6bdc27753U, 0xbce09b303df16572U,
  0xbe0d949dbe158033U, 0x3b30dc00b9f9da00U, 0x3cff33e83e4c8011U, 0xbe27b4303dc38f4eU,
  0x3db29bee3d102900U, 0xbe3d84b73df04b86U, 0xbd73ca983ce0f7b0U, 0x3d89bc52bd689118U,
  0xbd99c42d3d89abc6U, 0x3db3feaebb66cc00U, 0x3e1b6e23bd63df80U, 0x3d805722bde09707U,
  0x3d597374be0294f6U, 0xbd1ccaf43d8a7032U, 0xbcb629503e306b71U, 0x3d6f441c3d773164U,
  0x3d61a3a4bd14d2ccU, 0xbdc295403da12bc6U, 0xbd965cecbd8c6e34U, 0x3d1392a83e2fab61U,
  0xbdd8fb40be302a1dU, 0x3e233973bccf9180U, 0x3d103fa8be08cf9dU, 0xbd28d0583d0d6640U,
  0xbe433a63be391b8dU, 0x3e1d3fc93cd67518U, 0x3d0689983ca0d650U, 0xbd2aa14c3c885e00U,
  0xbe3695e7bd5a4fa8U, 0xbe2fd6c03dcac686U, 0x3d8a847abd9459c0U, 0x3d508b8c3b293d80U,
  0xbe3735673a17b000U, 0x3e4b95793e289847U, 0xbdaed5f33d3344ccU, 0xbd86e0c0be04cc60U,
  0xbe08d3963e0f7033U, 0x3e1eb9873d4e798cU, 0x3e4740d7bd70bd40U, 0x3c3565d0bd87fb54U,
  0x3c92f4303e0d4027U, 0xbe11f03abcc69600U, 0xbe1a78a33d32a940U, 0xbe320baa3e296703U,
  0x3e0fc9cdbd090980U, 0xbd812d8cbe304a13U, 0x3d7728b43d035c58U, 0x3e3ecbad3df74e12U,
  0x3abef800bdb7ee6dU, 0xbe0b2996be036c7dU, 0xbbc86a60bd8ebd34U, 0x3e4bd421be41b257U,
  0x3dfb7d86bdd93a20U, 0xbc7c35d03da00882U, 0xbde305cd3de4de12U, 0xbdd014603df02daeU,
  0xbdfa55333d6ce024U, 0x3e15d3c73d988002U, 0x3e243511be43da77U, 0x3e232151be1d4366U,
  0x3d6462743e4352f9U, 0x3e09de8fbda5d14dU, 0x3e6e001cbcc630bbU, 0x3e10aebfbe80ec76U,
  0xbe6eadbc3e864aaaU, 0x3e43b45b3e4e66faU, 0x3bb7931fbccbb5d0U, 0xbdeb9574bdc64a60U,
  0xbd0dbf093d53921eU, 0x3d7c4bd7be2c5ecbU, 0xbe5eb57c3d713132U, 0x3e17c8c33e37dea7U,
  0xbd4a23143cc115ffU, 0x3de5f47c3e3d8ff9U, 0x3d88ac6d3db622dfU, 0x3dc165a4be42ada1U,
  0x3dcd918cbd0c0d21U, 0x3e0c7e2dbe044576U, 0xbd38e0ebbe4ff15fU, 0x3d146411bd5939f2U,
  0x3dd44d0f3e3dda0dU, 0xbc9c5b9a3df3d3a2U, 0xb7c8fd853e874f59U, 0x3e0097403dd4ec9fU,
  0xbdf51c0abcb8c79eU, 0xbdd6b40e3e35784aU, 0xbd8c580f3d9e466dU, 0x3d9e00a4be4f81f1U,
  0x3dca8c8ebd023f92U, 0x3e68a939bd26f6a1U, 0x3e1020b7be5a7ae9U, 0xbe480da6bd951023U,
  0x3e76be233ddf486fU, 0xbd8845a8bd703b84U, 0xbe3bbdd43ca0bbb5U, 0xbc839810bc9f5fb6U,
  0x3d7f242fbcf81cbcU, 0xbe84c45e3e4ec0ccU, 0x3e8f5dde3dcdb133U, 0xbd4735563db1d7caU,
  0xbce2ff723e64cb4bU, 0xbd46026b3dafc163U, 0x3bec1b343d0a5a33U, 0x3d2a80f13d891333U,
  0x3da41b8f3d128425U, 0xbd733cee3e1b73bdU, 0x3d23f34c3e68824aU, 0x3e1359a7be4d033fU,
  0x3d47294f3e0cb93aU, 0x3decc2fe3c942142U, 0xbdfb0b2dbdaefed3U, 0xbe7374a93d9e48e6U,
  0xbd229ff5bd3b5312U, 0x3e7a5ed3bccc0b5fU, 0xbde0400b3e048d7eU, 0xbe102d4bbd943dabU,
  0x3e802a80bdbd2692U, 0x3def72e03e07052bU, 0x3e543a1b3e2a8276U, 0xbdce872a3db35b9aU,
  0x3d1c3db13e1ffd51U, 0x3d256c8a3d86c33cU, 0x3e69884abe5e8d6cU, 0xbe7f151e3da5a646U,
  0xbd0adc49bd277b1dU, 0x3e1fc8823deffb1eU, 0xbe61681abda984fcU, 0x3e1515323daec88aU,
  0x3d4c9cec3d486fb9U, 0x3decfed13e1aed17U, 0x3e2ad99a3e7c341fU, 0x3e121c40be5f6110U,
  0xbe487d5b3db36b5fU, 0x3e1c7a8c3d8d0e89U, 0xbd8bd0c7bc9d3479U, 0xbde0f2d23cc685aaU,
  0xbe5688c63e350ef4U, 0x3e26fe5bbaaa7303U, 0x3e5dec49bdc7d38fU, 0xbd1ce8893cd1f49aU,
  0xbd93d7893e516d2aU, 0x3e01641e3c01aa2cU, 0xbe80cbcb3dd6f29cU, 0x3d8fd7623de7709fU,
  0x3e10530fbe897732U, 0xbd87354d3e48af7cU, 0x3e8b0ad63e5ee109U, 0x3da536fabe425fa2U,
  0x3dc05cf43d984e01U, 0x3e8acc8d3e3a530dU, 0x3e6d6af93d985c17U, 0xbe823b203e8d61b4U,
  0xbde6a332bda3bf38U, 0x3e9859c2be98509aU, 0xbce7d6babd380f9dU, 0x3e717353bda00c95U,
  0x3e763675be846bcfU, 0xbe6717093e7925f0U, 0x3e1e71c4bda056d1U, 0x3e956f95be27f557U,
  0xbe085649bdf7382bU, 0xbd27f8993e3eb71fU, 0x3e299a76be83d329U, 0x3ca36150bc000749U,
  0x3e81e7b83e31e792U, 0x3ddcef4c3cad9cf7U, 0xbe18ce50bc3399a4U, 0xbdc58b8d3e895620U,
  0x3d2ee847bd8c1a83U, 0x3d0a05133bc2d0e7U, 0x3e3ef47d3b9f0fb8U, 0x3e36ac60bcb8cdd3U,
  0xbe97aba43deb20ffU, 0xbc555eaebd30a599U, 0x3d15ed7ebd27c607U, 0x3e4b67a33e1411f1U,
  0xbbbb1f833dc6937dU, 0xbdc12099bcf2b7a7U, 0x3d834102be2c9075U, 0x3dc9bb023e08730aU,
  0x3e526e83be0eafb2U, 0xbcf56a7abdfd32f3U, 0xbb8eaf403d655342U, 0x3c8f3279bd87c940U,
  0x3e0430ff3c91b387U, 0xbe3523693e041d0cU, 0x3e6a5ef93e09e449U, 0x3c7e410cbe3ded28U,
  0x3d9f31493e369034U, 0xbdc0a1443e3151fdU, 0x3daecde03de1e685U, 0x3e157a5bbdbc53a4U,
  0xbd6d23fa3cd6f26cU, 0xbd9638003c9bf0c1U, 0xbd322dfe3b6b638fU, 0x3e8f075b3e3554baU,
  0x3e386d43be63cea9U, 0xbc6e91c5bd697a37U, 0xbd65a65cbe280be2U, 0xbcee0d68bd86d07aU,
  0xbde43c743e88d9b7U, 0x3d093a693e47365aU, 0x3dbeb0083c4c4f44U, 0x3c7eeab83e0f1ccaU,
  0x3e84a806bdd23486U, 0xbc9eb2bcbe3e19bdU, 0xbda71f0c3e6ce802U, 0x3e553b84bdc1d560U,
  0x3dad4148be37006dU, 0xbdc9da0f3e59482eU, 0x3d61bf003e00af9dU, 0x3de4eea83dcc6ee6U,
  0x3df48311bc65d186U, 0xbdff81583d8fc38bU, 0xbe4c0910bded24b3U, 0x3d7ea77f3d2fe032U,
  0x3d909f85bcb16f98U, 0xbe2d8ad4bc8412cfU, 0x3e0aea943cc581b7U, 0xbe46accb3d1970d7U,
  0xbe403cef3e327086U, 0x3e34d6bfbd053549U, 0xbe15e07fbcaba8f6U, 0xbde084463dc25ca2U,
  0xbd29edd8bd50dcabU, 0x3d6c67563cf53db2U, 0xbe426bfcbe0a1f6cU, 0x3d4a987abd958314U,
  0x3d28a8b0be30a7f8U, 0xbdf2087bbd500dbcU, 0xbdcbb7463dfc4813U, 0x3e2c719bbaba37b6U,
  0xbe2d2e05be2a5a7fU, 0xbe3bda62bd93d605U, 0xbd90f5b1bcace40cU, 0xbda70f823da9ed72U,
  0x3dc20269bc956114U, 0x3dfa86f63dc8e174U, 0xbcb50daebd967908U, 0x3e4473783e38ec6aU,
  0x3e2775d53e3f9b55U, 0xbda54ff0bddf1d32U, 0xbd582003bde81343U, 0xbda7732fbcb88351U,
  0x3e3a7783be30ec12U, 0x3e42b6693e01df29U, 0xbde978b7bde3451cU, 0x3dfc0b62be224286U,
  0x3d2f61e2bd7b5342U, 0x3db931d2bda9e727U, 0x3e14bf973c5e4b00U, 0x3df1647ab9fb5400U,
  0xbc191b00be1c2246U, 0xbe16e186bdb1fb33U, 0x3e074e57be44d3faU, 0xbc942b00bd331c18U,
  0x3ddcba9abc077160U, 0x3ce9a5803d741334U, 0x3ddf692ebe407d77U, 0x3d38fd34bcd5e400U,
  0x3e37ed03bd162034U, 0xbe27c6f6bce16430U, 0xbd442fd8bd19014cU, 0xbe0578a43b77a680U,
  0x3d6fd39c3c7bc230U, 0xbdaf3d9abe3ca1e7U, 0x3dad7ba2bb66e4c0U, 0x39ac0000bdad9a4dU,
  0x3e44e777bdd1e9a7U, 0x3d2cb8743bf06f40U, 0xbdf39d873ba56800U, 0xbdd5f393bc960450U,
  0xbe2f45ca3c657460U, 0xbcfdfd50bdb375baU, 0x3dd6b18e3e322b1dU, 0x3cc5ae503e420733U,
  0x3de077a2bc0ae230U, 0x3db0ecaebbd5d400U, 0xbd5a4640be39e6adU, 0x3e14487d3c73a960U,
  0x3dcd1f26bb8aaba0U, 0xbdbdfb67bdd040b3U, 0x3e151da13e051759U, 0x3db7135abddebe47U,
  0xbde7bda03d23d80cU, 0xbe2bb5fabda29d07U, 0xbc59be39bde31dc7U, 0xbd334010bd983beeU,
  0x3dac2e7a3d7a950eU, 0xbae41846bdf1bbefU, 0x3d9df46abe0d902aU, 0xbe08820abe4a822eU,
  0x3bbac10fbdb3371bU, 0xbdc3cc68be428e4bU, 0x3d773423bd9e8741U, 0x3da74e5f3dcbc26aU,
  0x3d8681aa3c6e888dU, 0xbdab49db3e2b1fb9U, 0x3e0139e93dfde0c6U, 0xbe0c50eabdc5682fU,
  0xbdd6bdbb3d18f5caU, 0x3e29190fbd09de04U, 0x3e005b3f3e211f39U, 0xbe29640a3dd2fe8bU,
  0xbdbaea7b3e32e03dU, 0x3dbdba3abc88af09U, 0x3df8ba9ebd87008fU, 0xbe36e155be0e96daU,
  0xbd4d81f8bca26021U, 0xbdfd758fbe2d7e44U, 0x3e331363bbe366e0U, 0x3deb3dfa3e23c51fU,
  0x3d47d30b3beb078eU, 0xbdd33fb5bc947f88U, 0xbdbe551b3e2448bfU, 0xbdd866e23d3ac756U,
  0x3deb93d7be33387bU, 0x3c4c69203dc69332U, 0xbcaaa222bd910fc7U, 0x3ddb68d73db1eceaU,
  0xbe3d62cbbd7f0651U, 0x3d673623bde4e2f5U, 0x3db6646bbd3cbea8U, 0xbc8a86083d679473U,
  0x3e257c513ce6f430U, 0xbe2edda0be1ff420U, 0x3e442bc7bc1f38d0U, 0xbe482f973d9e6a82U,
  0xbe04dd0dbd8164e0U, 0x3e261f033dcfba9aU, 0xbe05023dbc341100U, 0x3e3b6f73bde1e213U,
  0xbda89e00bd3eadd8U, 0x3e2ca089bcdee0d0U, 0x3ca08b30bd9f2cf3U, 0x3d2d2fa83e1af80dU,
  0xbc914c803e2ef059U, 0x3c46f3303d42d0e8U, 0xbd7c2c4cbd9733e6U, 0xbd72f100be3b3443U,
  0x3a646600bdcb0c27U, 0x3dddab4ebd7f638cU, 0x3db186b23b8a4000U, 0x3e4428c1be043b46U,
  0xbd5a8ae83dab1ee6U, 0x3dbf16ae3c906c80U, 0xbd6d018cbe0cafb0U, 0xbd3baea83e0dceb1U,
  0xbe0936c4be1d6ddaU, 0x3d868efa3e0826f1U, 0x3e4314b93d46ab00U, 0x3d0d1098bd60c8e8U,
  0x3d198140be139b73U, 0xbe2e00aabd6fb5b4U, 0xbe4bca133e2b1e77U, 0x3dc1ee923c9f0800U,
  0xbdcf68ad3c1725a0U, 0xbd0cfb58be12dafaU, 0xbcfc3950be09ca16U, 0x3e4687193d7afc5cU,
  0x3c6137003e23dc89U, 0xbe23d285be2ebbbdU, 0x3c5150f1bcd8734cU, 0xbd97ec36be066be0U,
  0xbe36f2dabdfdfb72U, 0xbc84bfddbe382878U, 0x3e1dd45c3e271d0eU, 0x3d52f1b8bdcc9fdaU,
  0x3db8c145bd313759U, 0x3db837c7be0038fcU, 0x3d2c8f3b3e0eb4b1U, 0xbe4f720fbdec19ebU,
  0xbdfcb53bbd863b70U, 0x3c5751d2bd24eafaU, 0x3deb0fe3be27c01aU, 0xbe19c3febdbfccacU,
  0xbe3594003d82efa7U, 0x3e093d89bbb92290U, 0x3d58e3933c007023U, 0xbd7d2b353e26a439U,
  0x3e3353bf3e1e247bU, 0x3d09d6bcbd2f4621U, 0xbe0149e0be54ecefU, 0xbda5d59a3db144f3U,
  0x3dcbcd4ebe05f2c1U, 0xbe2234803e415939U, 0x3dfc29463de65a52U, 0x3d29686a3cda8299U,
  0xbdaa5887be00aeb6U, 0xbaeb65f83dee9381U, 0x3e22e5d9be13e775U, 0xbe006e57bdaa1628U,
  0xbd88ca42bdfbd3e6U, 0xbdf6ae76be506db9U, 0x3e123729bcffec43U, 0xbd97c1cabcdd4169U,
  0x3e24128cbe174350U, 0x3d73a8853d830ed7U, 0xbd7a1eb33dbaec41U, 0xbe246c71bd8375acU,
  0x3e805dfd3d950a30U, 0x3c779183be373a24U, 0xbdbd2f7b3e423c65U, 0x3d9457e03cb207b7U,
  0xbd5d975dbcbb1202U, 0xbdbcdf053d79eb7dU, 0xbbbe85e7be3b0e50U, 0x3d96e37d3e36df8fU,
  0x3dee03db3e154744U, 0x3e842da6bd83a9afU, 0x3d14af343dce7e35U, 0xbd10047dbc664281U,
  0x3dabfe7cbe646ef9U, 0xbe713fc93e1f64efU, 0x3d9ad3bf3dd6b1e1U, 0x3e26a3dbbde88a37U,
  0x3d1af20dbe3d7f25U, 0xbdaf9b543e2b191fU, 0x3e1ff123be84753dU, 0x3d8ea3af3dafe110U,
  0x3dbe85383decc0fbU, 0x3d2db673bde0d696U, 0xbe260ee8be0ea994U, 0x3bace4413e4a9453U,
  0x3e607beabdd75fffU, 0x3ddad4e8be46b631U, 0x3dcf95253d41b63cU, 0xba8ee84b3ddb695eU,
  0xbe59b13e3db60269U, 0x3e06f0243da179c0U, 0xbdc924d73bc8b5e7U, 0x3e0bc023bc9c5aa1U,
  0x3c665a373e6f2a4aU, 0x3e19e106be750b97U, 0xbd21770ebe12ccbfU, 0xbe0da4023b1685e2U,
  0xbc0a59623db3a2bcU, 0xbd29b6b13e0011c5U, 0x3b9bc8c53c727a50U, 0xbe22d141bd373cc7U,
  0x3cb8dc7ebba47f79U, 0x3d54b06fbe266d84U, 0x3da987923e4dc957U, 0x3cc80e8d3e61214dU,
  0x3e405fd6be45f78dU, 0x3cf585963dbc2f27U, 0x3e73b4d53e813d89U, 0xbdc1a75dbe040fa6U,
  0x3dbdb0d3bc5ddc0fU, 0x3e891b283e73438fU, 0xbdf1ebeabe8377d6U, 0x3d9642adbd86103cU,
  0x3e7c82d53cc39d76U, 0xbd1e9958bd7cfd1cU, 0xbe1ea08a3e4223eeU, 0x3e216b3e3df548ebU,
  0x3e7983a03c05f828U, 0xbe47f1e33e8af2b7U, 0x3e97d2783d0778c5U, 0x3e1e9c19be7bf12eU,
  0xbe77fade3dc419c2U, 0x3db600633e55504dU, 0xbc98427d3ac2c4a8U, 0x3d1e1d093e6897d3U,
  0xbca3d437bcc44444U, 0x3a176bd23d367db7U, 0x3d39d2ab3e8678c0U, 0xbd34b017bde32f35U,
  0x3e35d107be362966U, 0x3c91f3053e8014fdU, 0xbdb512493e5262b2U, 0x3e743fd8be356f3cU,
  0xbe8fc8d7bb11a956U, 0x3d7a6c1c3e3c6f52U, 0xbe180f5dbe0c79eaU, 0x3db4bf2ebdccb3daU,
  0xbd16448cbdd7e4f3U, 0x3d16ff28be48d3a7U, 0xbd930f863e473b91U, 0xbe110f1abe1c4046U,
  0xbda9d2073d110bb4U, 0x3ddfb85abdbb0293U, 0x3d3c0980bdde12faU, 0xbdf2be1a3ddf2da6U,
  0xbdcf704dbd06068cU, 0x3e458999bd027be8U, 0x3b5032803ddc2326U, 0xbd66b358be22dc56U,
  0xbcbcfd68bcf5f730U, 0x3e4b9f2d3ba6dd40U, 0xbddf4fda3db1bdf2U, 0x3d7def0cbe2c7c5aU,
  0xbdd46b6dbe0eab63U, 0x3dd18cb2bdaab6faU, 0xbe0b9c463dc17aceU, 0x3d524ac4be3bd163U,
  0xbd0ee8803cbf2668U, 0x3e2038d33d136640U, 0x3d12b0d83e26dd0dU, 0xbc5e70a0be16e93aU,
  0x3cbe8f183d1922d8U, 0xbc9605803e1b27b9U, 0xbdc4b41a3b8b3da0U, 0x3c831e30be1391a3U,
  0x3dce84e63e31b993U, 0x3dfc91ce3e033533U, 0x3e411ffdbd9b5900U, 0x3c9d0ee83d25d78cU,
  0xbe0c1c7dbdfc5580U, 0x3da5897a3e223913U, 0x3e01dcadbd3a2b18U, 0x3dcbe840bdc85440U,
  0xbdcae65b3e8b451eU, 0x3e82dc2dbe53b979U, 0xbdf78e8ebe3a412bU, 0xbe484fa83d2d7b1dU,
  0x3e4f9baa3c83e4feU, 0x3d8198a93de92a34U, 0xbd6c5daabc92f25cU, 0x3e4082e2bd48ed66U,
  0xbe6a71253daeafa4U, 0x3ceae343bd0b9ba1U, 0x3da40ae23bc2b4bcU, 0xbde1a1253dd6fbc2U,
  0xbd4276663e64ca97U, 0xbdbd1787bc46a7b6U, 0xbe080693be0ea484U, 0xbdc5a58e3e82696cU,
  0x3e8278debdd663f7U, 0xbe7a66ae3d84d093U, 0x3e3d0c533db61bd6U, 0x3e1f3ab3bcb138bcU,
  0x3c0d8f723e235a41U, 0xbc186401bdaa668fU, 0xbdc4c3c1be6cb220U, 0xbe7622493dad1aaeU,
  0xbdd44d233d9367cfU, 0xbc6cee1e3d5ed155U, 0xbe6cc314bdfcd9c3U, 0xbe2265ab3d9d0e29U,
  0xbdaa39afbe79d066U, 0xbe562dd03df1e595U, 0x3db8a0f83dd76ce1U, 0xbda59888be6c784cU,
  0xbe2606c73e45cc93U, 0xbd3082ff3e246693U, 0x3dcc93723d31664cU, 0x3d00522b3c3ec0bfU,
  0x3de42eb93e0fbfe9U, 0xbe085e283dedb5e6U, 0xbe2ad7443df4cd6cU, 0xbb8e439f3e4d17afU,
  0x3e75bd813dd32707U, 0x3ca210513e1c9950U, 0x3e758c6b3e2458beU, 0x3d5f0b42bb0bbb13U,
  0x3de3e4a23e79ad22U, 0x3e0454613e8242d5U, 0x3e786154be2ac3b1U, 0x3df121b83e862403U,
  0x3d81dca73d88ecd3U, 0x3e6fde80be7e7571U, 0x3b077ad2bd16087eU, 0x3e245c17bd0b31ceU,
  0x3dcedc8abe673a86U, 0xbe3f09483e7c3476U, 0x3e5b24483ddf50b6U, 0x3d926cb53e03d957U,
  0x3d516e5d3d8997d7U, 0xbd4735df3e7f0ae1U, 0xbdd7d720be48f7ccU, 0xbe759a263e988524U,
  0x3e9829013d051d6cU, 0x3e58ac16be8017c8U, 0x3d78f13ebd60bdb3U, 0x3e90932e3dca99f7U,
  0x3e1f953a3c5f467eU, 0xbe5cc0db3dcda55dU, 0x3e47a16d3d83f01fU, 0x3e072f05be58e91cU,
  0xbe7dd9743e09c1faU, 0xbd889c993dbef9b4U, 0x3e49364f3cb79c05U, 0xbd1442e9bd8b5a59U,
  0x3d0dd4513e2cf516U, 0x3e672509bdd7a0eaU, 0x3e45ae583dc75c5eU, 0x3e3508903e14e645U,
  0xbe6711c7bcd6b45eU, 0x3e6bde9bbd247ff5U, 0x3e2bfb13bdd92456U, 0xbdd476b33e5fc080U,
  0x3e4d1f443e2ed1e2U, 0x3e17da05be792fe6U, 0xbe09f0023ddd3be6U, 0xbda6bcfcbd8c7850U,
  0xbd1ef1003c963186U, 0x3c62414d3d413f64U, 0x3d2e1e213e76e05fU, 0xbd9b84ae3d034bf4U,
  0x3ca4bf3f3d9312caU, 0x3de5a7613e15bda7U, 0xbdf0a3163d8e1954U, 0xbc1c9dea3d7fb38dU,
  0x3e6439b5bda272abU, 0x3e6718903e1847c5U, 0x3e1805d6bd1c24ddU, 0x3e352f573e61c300U,
  0x3d672155be1b86e9U, 0xbe186bef3e265df8U, 0x3cc2d32e3dc271b1U, 0xbccd9e813d45c197U,
  0x3d8a7037bd95c187U, 0x3d30a8fc3e335875U, 0x3e89265cbd564bffU, 0xbe4633903dd860d9U,
  0xbd79c8983e4b39b9U, 0xbbf11cb1bd36a44eU, 0x3de631e8bcd6f9f7U, 0xbd3ef3c43e0416d6U,
  0x3e10b0a6be38549dU, 0x3d4b3dc33e6aad6fU, 0xbcffe7bf3e0ea2b0U, 0x3e6d848dbd12204dU,
  0xbc92e47ebe5fb7a9U, 0xbde8cbc1bd3245b4U, 0x3dfdf3033de631e1U, 0x3e5834fc3dfb0184U,
  0xbe1766013e8d1887U, 0x3de24586bd617c64U, 0x3cc241c53d19bb3cU, 0x3d5f5b823e8dfb11U,
  0x3e107d503c6a52baU, 0x3e1b3bdc3cad6a24U, 0xbe5875ecbc7bd867U, 0x3e6ddc603e1498e2U,
  0x3e82e057be63a185U, 0xbd426f8ebcd364a8U, 0x3e462e58bddbbd02U, 0x3e6b0915be54d76cU,
  0xbe328be0bcfcfdabU, 0xbdd47b5cbdedf0c6U, 0x3e4e7bcebdb76db3U, 0xbdb7fc943dade466U,
  0x3e5032ad3dc2c6abU, 0xbd76c70fbe678cdbU, 0xbe1bf3803e85a86fU, 0x3dac26333e71bb88U,
  0x3e0fa9c9bdebcf4aU, 0xbdea78e83e8d7261U, 0x3cb8b9fbbd96a354U, 0x3e0f08863cdc2906U,
  0xbdf03af83d4d90aaU, 0x3d4cafd2bdf41200U, 0xbd23d409bc5071c5U, 0x3ddeaf63bddced72U,
  0x3da8edf13cc4b362U, 0xbddc3fe3be233dedU, 0x3d1c787cbdc33d7bU, 0x3e4f41693e09a6d4U,
  0x3e36bcacbe67c811U, 0xbd0e53843dfe9197U, 0xbdc3fc793d1766f6U, 0x3db956393dc6f9b4U,
  0x3d1a1b4cbc50474bU, 0x3e3e3a0dbdf8b8aeU, 0x3dcfc8d1bc29fed8U, 0xbe1804b83bbebcb1U,
  0xbd2fc1d2b9f11937U, 0x3ce34194bd85b41aU, 0xbe0a64083de009fbU, 0xbe09dceb3e2f6472U,
  0x3e3e81b43e418ea2U, 0x3e3972a73e8014b9U, 0x3e21ae51be3b6500U, 0x3e14a233bbae4e42U,
  0x3dd24d6dbdd16755U, 0x3c9c06ce3b831e8eU, 0x3d2eadd83d1eadf4U, 0xbe04a7cf3cdfbc33U,
  0x3e3255b43e0987aaU, 0xbe386cc93d2499e6U, 0xbe176158bc196ee5U, 0xbd81e7073d80c21aU,
  0x3c5aae10be2ef85dU, 0x3e38f28b3cb9b541U, 0x3e1ec15f3dcd6aebU, 0xbd8b18a13c448949U,
  0x3d9dfd1a3e3406ddU, 0x3e133d52be33e444U, 0x3e28a2b1bd3abb13U, 0xbde197cc3d282b07U,
  0x3e3cbdc63e0be883U, 0xbd6dfe713d307cd7U, 0x3e1602f23df108d0U, 0x3e825c5e3c18edb0U,
  0xbe2d1745bcc6714eU, 0xbaa759623e544c0eU, 0xbd8a4f063ddc7a82U, 0xbcf62cd1bd4421ffU,
  0x3e2dba433d8b2f8cU, 0x3d09380cbdb5a5f4U, 0xbddb7adabd07281bU, 0xbdbca66d3cf4cd31U,
  0xbe2570d33de4332cU, 0x3d929ba8bdb70badU, 0x3d79c13dbce1c180U, 0x3b115343bded5507U,
  0xbc87cd393e129193U, 0x3d88e97f3e094194U, 0x3e3123d6be4970c4U, 0xbdd101da3d18f899U,
  0xbc3d243cbe2590e3U, 0xbd54ae5c3c8ae3e6U, 0x3d7b68bf3e119a3dU, 0xbdbc9c33be4260a4U,
  0x3e359f7a3c21958dU, 0xbd851166bd7abdbfU, 0xbe30854dbe109c50U, 0xbe4681a4bd8dab06U,
  0x3e134a843e356913U, 0x3e3181473de6fb74U, 0x3d4a7968be4adfd4U, 0xbe1aca2d3db4487fU,
  0x3e27a14dbd2fac9cU, 0x3ca7aab03e45d4b6U, 0x3e0bde443ce56a9aU, 0xbdd8fd5abdbd3a87U,
  0x3e0aaf24be32b9f4U, 0xbe2720d7be141120U, 0x3e3df993be0e14d3U, 0xbd599b1c3d35fb73U,
  0xbd1a45e9bd121b73U, 0xbd6e1d733d1fe400U, 0xbc9c75803e11ba8aU, 0x3dd48f78bdd25cfaU,
  0x3d97d8d0be087d57U, 0xbe3c85e83df6664aU, 0x3d3ec12b3e4d20dcU, 0x3e463da5be791fbeU,
  0x3e0c1b2abd719814U, 0x3e4d00e43de173ceU, 0x3e9037a8bdcb443fU, 0xbe164dbf3e5c1c1eU,
  0xbe3496db3e5a8f70U, 0x3e25f7d6be172485U, 0xbe0a2a093dc7ae19U, 0x3cd446493e90a834U,
  0xbd30524c3d8ece95U, 0x3e02c4b7be052e82U, 0x3d158ce13e961190U, 0x3e816d7ebe46d2a3U,
  0x3d512a9abd668199U, 0xbe013e1d3d4bb75fU, 0xbd9928f5be57d4c7U, 0xbe4362d83e4ef674U,
  0x3d1f0c7b3e75d9cfU, 0x3e1d4bd1be76d62aU, 0x3c8dfc07bdf14dafU, 0x3d2edf143e0735b1U,
  0x3e625992bd6fb7e7U, 0xbdd593d83c45ddf6U, 0x3e4f6a973e256923U, 0x3e46e422bde6a0d5U,
  0xbe7ff9e13d6b6c33U, 0x3dc5ac563e8fb28bU, 0x3e557495be830441U, 0xbd3ef8753d8ff0b4U,
  0xbe2303d23d9a54b9U, 0xbdbcfed7bddf7cecU, 0x3da993fe3cc06132U, 0x3c136148bc60f599U,
  0x3d4d4554bdf7a32cU, 0x3d8c7ec8be1a83c0U, 0x3d3d2a30be26c18bU, 0xbdb81ababd5fa553U,
  0x3e0626acbdb76ac5U, 0x3e2ed61fbe95fc40U, 0x3c8e94a8bd61ee42U, 0xbdb52b093e2d14bbU,
  0x3e21e7e5be003331U, 0x3d9969c53e744023U, 0xbdb3f57b3e7b6541U, 0xbd1417f3bdbfbfd1U,
  0x3c66f2ac3e2ac480U, 0x3d95820d3e74a2d7U, 0x3d951cfabd99cf5eU, 0xbe4ee3693dd6b2d3U,
  0xbd0576403b17033bU, 0x3e59096abdc1257dU, 0xbd5011543c92e9a5U, 0x3e3797c4bda340a3U,
  0x3e8efde13dbe068bU, 0xbd6b202d3e5904c8U, 0xbdd942d33e299544U, 0x3e4ae6373d271bcaU,
  0xbe8a2cd63e4de098U, 0xbb90c1633e0dbe3cU, 0xbd457357be59f64aU, 0xbd0cd2fb3e84f2baU,
  0xbc2d561e3e9001deU, 0x3df91381bdba3d41U, 0xbdbb1a923d13659bU, 0x3dd7369d3e5dfab1U,
  0x3b4ce268be0654abU, 0xbdc1bb113e48203cU, 0x3e770e55bd9c8227U, 0x3da73022be661dc5U,
  0xbe47593ebd0bcd07U, 0x3d84b4533d9b7549U, 0xbc329727be8318fcU, 0x3d6bafc13e87440dU,
  0x3ddb485d3e11e1ccU, 0x3cb15453bd73ccafU, 0xbd5df58a3dc3f664U, 0x3e740df43b9e117eU,
  0x3d1481ffbdd05f6fU, 0x3dc30aef3ddea543U, 0x3e84f523bc6310fcU, 0xbd9082853e3fa4fbU,
  0xb9183b1a3d61807dU, 0xbd3ffb8d3d907a35U, 0x3d954f113c6281c8U, 0x3df908cabdb339b0U,
  0x3e044e1cbe4fb701U, 0x3e02abbebd346cbeU, 0x3d281a64bd29a8c1U, 0x3e0aab1bbe45faacU,
  0x3de329cc3e10b7deU, 0xbdb1f4303e5786deU, 0x3d692585be2aac74U, 0x3e34c830be144c02U,
  0x3e347a6abd82e160U, 0x3e465c87babe6b17U, 0xbdd5b471be1ca06fU, 0xbd4784903e8a7b21U,
  0x3d877c38be1c2d62U, 0xbd159026bd0288e6U, 0x3c79c0e73e5eb28dU, 0x3e275f953d3afe8eU,
  0x3d0cd4e4be14ada4U, 0x3e2ad09a3e2c50a7U, 0x3e36d70e3d708ef2U, 0xbe4981793de652e0U,
  0x3e10acc43cf41346U, 0x3e8fb6353dadb5f6U, 0x3dc3f7583e0e574cU, 0xbd570aaabdd010cdU,
  0x3e4216c9bd92bbfdU, 0xbadcdd003cf3ab00U, 0xbdbee0ed3d923aeeU, 0x3de7a3c6bd647a80U,
  0x3ce56ad0bd8d3174U, 0xbd8b0fba3df5d79aU, 0xbe3408babe2728d6U, 0x3d757cb4bdc7684dU,
  0xbdd69813bdb06d33U, 0xbdf01b1a3dd3288eU, 0x3e2e3fddbd961ca6U, 0xbdb7f29a3deb0caeU,
  0x3df1a81a3dc45c1aU, 0xbd8c68fabe2b3340U, 0x3d8fc746be449dc7U, 0xbcf16268bc25a1d0U,
  0xbdbb2c603d906832U, 0x3cd71330be1990c6U, 0x3e208ec93cee2ae8U, 0xbd70e3cc3d02a980U,
  0x3d983fe2be119066U, 0xbde7c2babd912734U, 0xbda90f473e1bd077U, 0x3e38771dbe1284baU,
  0x3e06b231be131fc0U, 0xbe3d86b73da3558eU, 0x3e190f41bbd43fa0U, 0xbde2e373bb6598c0U,
  0x3e3e2193bd7bf4b4U, 0x3d9d65e2bb110000U, 0x3e158f99bd60b740U, 0xbd0b61c0bbabf400U,
  0xbdb6f06dbe207796U, 0x3d5908dcbc843fb0U, 0xbe2b3503be0297ddU, 0xbdda0173bd839cb4U,
  0xbe2e11eabd8914ccU, 0xbdef78da3ca90f98U, 0x3c689c60bc72e760U, 0xbe205b16bd65628cU,
  0xbe30bd9a3d27b4d8U, 0x3d85926e3d657724U, 0xbd7f36c03e3135ddU, 0xbe1104e6bd3da128U,
  0xbcddf0503e04cb53U, 0xbdce15e7be2eabd3U, 0x3d310474bce7e198U, 0xbe089a3a3db363baU,
  0x3e036add3de47c2eU, 0x3df89bb2be1f88c6U, 0xbdcc956dbe25b0e3U, 0x3e120e51bc8ea518U,
  0xbe2a58d6be1bd870U, 0x3e27454d3e345487U, 0xbda6a30dbcac98b0U, 0x3d8e4e663e0114d3U,
  0xbe0cf1ca3d993452U, 0x3dde9786bd57ab40U, 0x3e1e8d03bd2bdba8U, 0xbd6bc4c03ca85180U,
  0xbd7a2fa83e213f53U, 0xbd4e80003d874f4eU, 0xbd47de4cbe298dddU, 0xbe2d0c37bd98d5c6U,
  0xbd6aa64cbc816a18U, 0x3c2214603d87132eU, 0x3e0c88833e02684dU, 0xbdcee4a03dbbd96eU,
  0xbdd368533dd22886U, 0xbcd4f4183da511a6U, 0x3e17e147be147503U, 0xbe018ee6be3b3643U,
  0xbe395c00be3ec673U, 0xbe0f0013bcabda30U, 0xbe3ff60a3d249ac0U, 0xbde94e873c2a0760U,
  0xbd2235203de69122U, 0xbe03c11a3dba21f8U, 0x3e20a47dbc9a3e00U, 0x3da9b7e63d92b6faU,
  0xbd92c3723e471881U, 0x3da06e6f3dbc93e4U, 0xbc5c59a0bcec0a49U, 0xbe44868b3cbf558fU,
  0xbc898efb3d630d51U, 0xbce1da90be24afd7U, 0x3d69cb1f3e0c566cU, 0xbd8143193e616084U,
  0xbb99047cbd921718U, 0xbe513d5ebcdd2c81U, 0xbbd3164a3e37d981U, 0x3e18512bba52f6daU,
  0x3dabb2503d1b64c9U, 0x3e664214bd20ba20U, 0x3d851beebd966e6eU, 0x3d6ca0b53c532a0bU,
  0x3dd3bb7f3d6a85caU, 0xbda14b10be8768f6U, 0xbe79d7c73e6bd25eU, 0x3e7454f4bda1259bU,
  0x3e4fb374be697a30U, 0xbe885b41b8c9fcbfU, 0x3e2bbb82bd6e09c4U, 0x3b87bdc1be13f377U,
  0x3c79ba9b3dc18222U, 0xbd424360bd9164b0U, 0x3e3cd75c3d420e26U, 0x3de1def0bbfa3479U,
  0x3e5383a13e432321U, 0x3e811d7dbe5fb971U, 0xbdac54d83da662d2U, 0xbddfaeb2bdf70cffU,
  0x3e631679bdf966b1U, 0x3df7a6263e7d573bU, 0xbda3c7fabc5fdb60U, 0xbe41491dbe44e397U,
  0x3dd9f3263ca461b0U, 0xbe269d36bc209530U, 0x3cdaa2e8bd5fd758U, 0x3cedd330be4a3733U,
  0x3e4371233c0254a0U, 0xbc12cb303dc51886U, 0x3e486af73e09755dU, 0x3dd6773abd728aa8U,
  0x3d9ecec6be03387aU, 0xbe0ef2433e3f9131U, 0xbdaa6f7abca002d0U, 0x3dfbb546bd9093e0U,
  0x3df63986be29e98dU, 0xbe205656be4cbee0U, 0x3deef46e3e2f0b27U, 0xbd868af4bc2f0860U,
  0xbdccce40bd414ca8U, 0xbd0f7c8cbe40d990U, 0x3c03a100be1577a0U, 0x3e1f24933db47752U,
  0x3e007e733da34d4eU, 0xbd186934bdc8f580U, 0x3d1a39a8bd3b5e80U, 0x3e437567bdafc807U,
  0xbcc7e5003dc2cc6eU, 0xbd406318bd5fd880U, 0xbdf4e700bd8e6674U, 0xbe3bf87a3de40082U,
  0xbe340157be429a63U, 0xbd9685f43e33ada9U, 0x3e0a39cdbdfb3a07U, 0x3e47cab93db7ebceU,
  0xbde8dc273de7e192U, 0xbe44af10bc45e930U, 0x3e41fc19be22bd26U, 0x3e7b5aaa3dfc24fcU,
  0x3d9fbb56be5b1fb9U, 0x3dc1b70a3e0dc828U, 0x3e0169193e2d286dU, 0x3d883b15bdb52758U,
  0x3dd1e0893d92eb36U, 0x3e259b7a3d999808U, 0x3dda230fbe617f3fU, 0xbc9b727f3dabb539U,
  0x3deffc9c3d31af64U, 0xbdf1a72abd7f2f32U, 0xbd6156793def6e2bU, 0x3e52a1963dc3b5b8U,
  0x3e3cf6893c8e045aU, 0xbdc685b23e7f30bbU, 0x3dde6c33bd98ac24U, 0x3dc7b902be6fc41bU,
  0xbd03ad093e129f6aU, 0x3e41aea43df7de44U, 0x3d72fde4be40f77cU, 0x3c08dda13e7b9a4cU,
  0x3d9ee78dbdf047d4U, 0x3e38e5d23d710347U, 0x3dec7e863c939362U, 0x3ce4e50f3e00cdb9U,
  0xbdc25a403d42725fU, 0xbd4a29febd4b388eU, 0xbb083f813daae84dU, 0x3e533aa6be3b9a0fU,
  0x3d8c5f173de45649U, 0xbda56e423debebfbU, 0x3e2b808dbda1bac8U, 0xbdbc3b173d1a6437U,
  0x3d9cae47bcf059aaU, 0xbc8c7307bc73cdeeU, 0xbe0e17f13e52cd59U, 0x3d44ba4c3b3f3c6eU,
  0x3e0f87b73c8875c2U, 0xbd9b7d003d701ee4U, 0xbd70ce98be2f89baU, 0x3e44b87dbdb4a940U,
  0x3e077883be092fc4U, 0xbe017a8d3cdcb5e8U, 0xbdbebe47bd874b40U, 0xbdf0ac5abe4b92b3U,
  0x3e4393ed3e466017U, 0xbdeb1a00bd7c7cd8U, 0x3d9307b2be0549aaU, 0x39468c003e323ba3U,
  0x3d03848cbb232280U, 0xbe354633bdc79c4dU, 0x3e36ea113d32c300U, 0x3df8b59abce6b350U,
  0x3dfeeae23e0d1d41U, 0x3daca1a2be1d76f6U, 0x3c8c1ae8be3b603dU, 0xbe207f333e4b4c93U,
  0xbe292cedbe142933U, 0xbdfa2587bde7e753U, 0xbbe718003d92f00eU, 0xbe3b73c3bdf9653aU,
  0xbdfe9840bbff5200U, 0x3e2ee3d3bdb02000U, 0xbe42025abcb53a68U, 0x3d55dd0c3e37ce01U,
  0x3dac0912be434a0aU, 0xbe3b7cf03e2b3e99U, 0xbde84cc73d4eaf8cU, 0x3e2bcd033df8ba4eU,
  0x3e270f493e1f3b99U, 0xbe073c70bc7a1d00U, 0xbd839eac3d966bc6U, 0x3c39a6603cb4cd18U,
  0x3df73ae2be2f5b00U, 0xbd4f95d8be30e8c3U, 0xbe4410e33e3cbe17U, 0xbe3b9ff03e0d7f61U,
  0x3d2e8c98bdc924b3U, 0x3e2c51033e2d706dU, 0xbdbdf2e03cd16ee8U, 0xbdaeda07bd6a9718U,
  0xbc903280bddcec93U, 0xbdefc6c73defda0eU, 0x3d539b743e4b6a53U, 0xbde4e7ad3d2fa9e8U,
  0x3e484a7dbe0857f4U, 0x3e261673bdd64867U, 0xbdb970273b5de980U, 0xbe3d4b1abd28efc0U,
  0xbe425ab73d705334U, 0x3e0ad5393e028a99U, 0x3dfec2f2be3f9bedU, 0xbe1947a03d136834U,
  0xbe1f3b803e31e557U, 0x3d4e24b43dded8aeU, 0xbd3ab6cc3ce29318U, 0x3d8d044e3dd29e8eU,
  0x3e4450893df927e2U, 0x3dd9a6f23e262563U, 0xbe143f7a3e15120dU, 0xbe3f75cdbdaa8b0dU,
  0x3d609de4bde02027U, 0xbca688503e2c5359U, 0xbdbaffe0bdae35cdU, 0x3cdcc6e8be441827U,
  0x3cabb630bdd6ac2dU, 0xbe419a103dcacad2U, 0x3e0c5109be104276U, 0xbd5124cc3d2d8f28U,
  0xbdaf15f3bde66873U, 0xbe1585f6bdeaae2dU, 0xbda7dbb3be12831aU, 0x3e2113d53cff0468U,
  0x3cf90d363d1abd26U, 0x3e87041c3dc05b19U, 0xbe13953e3d985cf4U, 0xbd0bbd2b3d378a1bU,
  0xbd6f6e1dbe4ae00dU, 0xbe0390773c59e8d2U, 0x3e13887c3e8e278aU, 0xbdabb6cf3e2cb68fU,
  0x3e10d1f8be4b75a5U, 0x3dbccd8c3d3bf1d3U, 0xbdb1c6c73dec2896U, 0x37d510d0bdcc8563U,
  0xbe1c699e3d1d1cc8U, 0x3b9fe8233e2e0c4aU, 0x3e1af897bd212743U, 0xbe0f7e1b3e4e3fb8U,
  0xbde419673ddba5f3U, 0x3d5a11f73cd32be8U, 0xbe7795c33e130b46U, 0x3e1d44213c139bceU,
  0xbda2b53bbd26cdc8U, 0xbe0de3853e598406U, 0x3e46f3d0bc8eb4a9U, 0x3e21bf64be0f4a4bU,
  0xbe39dcb9bd46451bU, 0x3dce51a2bddf6419U, 0x3d1b0868be450c6aU, 0xbe4e63303cdb44c8U,
  0x3e2cc2d1bdb8929aU, 0xbd424718be6f6fb0U, 0x3dbf16463e2b9a2bU, 0x3e54b2063da4472dU,
  0xbe144c50bb8fc5bfU, 0xbe35cd2b3e475c96U, 0x3e1cab80bdd3e57aU, 0xbe0a09c43dd5b8f2U,
  0x3ddfb36e3e3725c1U, 0xbd66762f3de3fa36U, 0xbe4bb4e73db01e9eU, 0x3dcdf8bc3dbcb0bdU,
  0xbd21720ebe2e818fU, 0x3d3d9e453e8c4764U, 0x3ddd5f99be167275U, 0xbe422468bdd8d0a4U,
  0xbe093a583e78ae50U, 0x3db7bbb8bda5262aU, 0x3e3df5febe23aaaaU, 0x3c9fa09a3e7dfa20U,
  0xbc1875a9bdfd705bU, 0x3de51a2c3b4f85a0U, 0x3d8e7ab53dd4de02U, 0x3e0c5357bcd5b860U,
  0xbddc91b6bda9bc2eU, 0xbd395b7d3e5b0335U, 0xba529a8c3d27adb4U, 0xbe4f5cdf3ceda8ebU,
  0x3c6af55cbd20e5caU, 0xbd8c952bbc2c5d81U, 0xbe11441fbcfcf498U, 0x3d42f89fbdc00bf5U,
  0x3e58c9d4bc91bf65U, 0xbe100643be212843U, 0xbe0f17eb3e93997eU, 0x3d694f8cbe2612f0U,
  0x3d5a08483dc17873U, 0xbe54be963e3028c9U, 0x3dcb5d9fbc93ebb9U, 0xbe436efa3b724a00U,
  0x3d4fa04f3e095ba9U, 0x3dfa3bd7bd01cf37U, 0xbe2a6c19bc7bff0eU, 0x3d1a4be53e6f6f6cU,
  0x3e54fb62bdcb1862U, 0xbcac4c8e3e0b864eU, 0xbc463b003d3c92cdU, 0xbd4a1274be199cf0U,
  0x3e0903093dad2ba2U, 0xbe01e9b03d96aa32U, 0xbe0d59963e204951U, 0xbde57053be214db6U,
  0xb94f1800be27fe30U, 0x3b5906803c000f00U, 0xbc88f380be45cce0U, 0x3e3855933e42f1a9U,
  0xbe2d79533c9adde8U, 0xbd661f80bdcf7547U, 0xbdec33a7bd8ea80cU, 0xbe24435d3e32b627U,
  0xbd5052d8be40f807U, 0x3dc04fd23dec1ffaU, 0xbe3f3ed3bcdcd150U, 0x3e1e3cd93d9ce2c2U,
  0x3d7d5a0cbd95bec0U, 0x3db61ce2bd0f0d4cU, 0xbcd29468bd4649e8U, 0xbdafa2c03e0d2417U,
  0xbe475dddbd3ea934U, 0x3c093330bd9d72c7U, 0xbbf3e2c0be4c1003U, 0x3d3719583ccff7e8U,
  0xbde7dd5a3d69b644U, 0xbd99bb2d3e336b73U, 0x3d1d4be8bd182fe8U, 0xbd20b7e83c4693d0U,
  0xbc2d27603d7aa264U, 0xbe13aa033dde34aeU, 0xbe384e60be49feb3U, 0x3e11cc5d3b24c8c0U,
  0xbe33ae833dcf431aU, 0xbe084a16bdfe6c40U, 0xbc586ea0ba3e0300U, 0xbd214f4c3c605000U,
  0x3e7bfbd1bdf4fcb4U, 0x3d6455c93e61e423U, 0x3e4336393dabd489U, 0x3d9a1fd3bd39fa23U,
  0x3db5b04c3de16604U, 0x3d0da3bb3e09e360U, 0xbd854b08bdd54e19U, 0xbe8247ea3e0bacb9U,
  0x3e1c237dbe015c2eU, 0x3debc3f3be3a99b4U, 0xbdce9954b9d388fcU, 0x3e103b90bd848b15U,
  0x3d6e076cbe63fac9U, 0x3db59cc2bc389040U, 0xbe0a71753db6515eU, 0x3d5c187f3d15d74eU,
  0xbe35a8b3be2c6c11U, 0x3e1583233e692388U, 0x3e217602bd82e55dU, 0xbe83ede63e3b3d61U,
  0x3e5a871d3e807e8fU, 0x3e4956adbe604e6dU, 0xbe6fc8cc3deb81b5U, 0x3da0946a3e8148ceU,
  0xbdf4e2fcbe47d08bU, 0xbd7a1f293dcf9aa3U, 0xbd9003d43e2e937cU, 0x3d8e14c9be189086U,
  0x3c6e0d863dcdb701U, 0xbcfb73143e174e72U, 0x3dc4d934bde4245bU, 0x3bd65cc3bdfa9481U,
  0xbd61bf453d8c075aU, 0x3c0e2ad23d0593e6U, 0xbd560b00bcef166dU, 0x3e1b92ec3e59d87cU,
  0x3d06a56a3d967e0fU, 0x3d886de2bcdf6276U, 0xbe310b67be35fef0U, 0xbe209c2dbe1b6703U,
  0x3bdb5ba03cb5b9b0U, 0xbc5576003e14c767U, 0x3d1cbdccbe3e24f0U, 0xbe1eeb0abd8f53c6U,
  0xbceb76e83da9d242U, 0xbb6fa8c0bdf7e4a7U, 0x3d9caea23cfeeab0U, 0x3d2341a8bd399218U,
  0x3e4052d13d5cb84cU, 0x3df2c3a63b57b280U, 0x3e0124cd3c62f0a0U, 0xbc42f6a03d089a0cU,
  0xbe2d7177be2b25d0U, 0x3e0458e73db8eb4eU, 0xbd6e9fe83e40ff43U, 0x3d48ac283db5328eU,
  0x3e44e0113d0dd680U, 0xbbb315403e031c97U, 0x3dad177abe2a17faU, 0x3d6316843e26da93U,
  0xbe35d62a3da51132U, 0xbd7f45e8be430907U, 0xbe2ff1c0bdb92487U, 0x3e349da9be1ab150U,
  0x3e468de1bd281ea8U, 0xbc985330be35823dU, 0xbe0001f0bc946298U, 0x3dc55242be21fe3dU,
  0x3dbb24b2be244eb6U, 0xbd49034cbd330a40U, 0xbe2c13a0be43fe93U, 0xbe13c1d6be2c2663U,
  0xbe258350bd007ef4U, 0xbd9f47ba3d8e67e6U, 0xbe217d2dbdb57b1aU, 0xbdf20eea3dfdc8e7U,
  0xbe223920be34e5b5U, 0xbdda68a83baf9626U, 0xbdb0062d3e1e4d50U, 0x3b5cf1453df7ad9cU,
  0x3ca12ebabe471d0fU, 0x3e20ad44bdf6f393U, 0xbd50eb18bde03d56U, 0x3d7bd7e8be21b047U,
  0xbe17ecd5be02afa6U, 0xbe2da759bd0ab15dU, 0xbe005866bdd73dfdU, 0x3e2ec137be08b1cfU,
  0xbd815c993d09b862U, 0xbe42b2c03e089ea6U, 0x3c980b17be4e7338U, 0x3b1d6a4b3e0c352eU,
  0x3d19cde63d8dbf8fU, 0x3e3feb04bcc5c969U, 0x3e3109f6bd939e7eU, 0x3cf87f2b3dc78502U,
  0x3d97597c3d892bf8U, 0x3ca73eacbe16881fU, 0x3ca09fe9bd50ec6dU, 0x3dc91ac6bdbae5acU,
  0xbc210f863e253998U, 0x3e2e8b223d8e8258U, 0x3d38c8fe3de48cb3U, 0xbe3e6f87bdbc2b81U,
  0xbd13ee713c9b5585U, 0xbcfeed5a3d01e0fdU, 0x3bf5232cbd9643ceU, 0x3d85753b3e261725U,
  0xbd6240a5bd7cfd3aU, 0xbe27eb62bd4c0108U, 0xbd8fa82c3e39983dU, 0x3d0e57fc3db4500dU,
  0xbb0d7022bdfe54b7U, 0xbdf2bdaa3c4e8208U, 0x3d4de8abbde37128U, 0xbe0376573e078ee0U,
  0x3d832840bd8f8689U, 0x3e280db0be2a8504U, 0x3de60dc7bde44033U, 0x3d8933353d9e3d92U,
  0xbd58200abdb1207eU, 0x3c457ef93da0b33cU, 0xbd5a0b3ebd55fc7cU, 0x3db2d73d3e2544dbU,
  0xbd260454bd041d57U, 0xbd2232663e0da1f0U, 0xbe1125e8bdb630afU, 0xbc56d759be195830U,
  0xbe02cbf43ccd3511U, 0xbe4adf773d1bead2U, 0x3cfc5d92bcf3365cU, 0xbe03b3623b9eb734U,
  0x3c58a7363e15c363U, 0x3e3bfcfa3ca46631U, 0x3d8a9e153de46945U, 0xbcdb20dbbbd917e3U,
  0xbce809f0bbb1ccfdU, 0xbc8d0c483d1a19b6U, 0xbe15f4f03e41c211U, 0xbd16ea46be113a94U,
  0xbac6c60fbe2242f4U, 0xbbb2339e3d59abd6U, 0xbe16d7c6be360084U, 0x3db7041bbe3cb22eU,
  0x3da8ddc8bceec954U, 0x3e3ae8f13b8b22c4U, 0xbdbdbb69bdc39d98U, 0xbe04f84f3e33f4e6U,
  0x3e0a378f3dc77dc8U, 0x3d28ee70be052699U, 0xbcf25a803d8646e2U, 0xbe258ac3baec9680U,
  0x3e2b117d3e1dbe49U, 0xbe2221cd3e2e1b39U, 0x3e116039bdc88967U, 0x3d4e651c3e3c6573U,
  0xbe27595abe39a933U, 0xbe085a26be18e98aU, 0x3e0e62413e1daa3dU, 0xbdb78473bd950234U,
  0x3d3ee980be1bc930U, 0xbe3d56603d93c9ceU, 0x3d8fbe72be271400U, 0xbdf0637a3d142918U,
  0xbe2d05a73d62c90cU, 0xbd4076f43d57f924U, 0xbde7dc203e0e7f31U, 0xbcc79b003d60895cU,
  0x3e3ddb993ca57130U, 0xbe2ba143bc151d60U, 0x3e3f23473c807b50U, 0x3d830de6be0097aaU,
  0xbe1de0e0bda2333aU, 0x3e29a8b9bd25818cU, 0xbe3e67d0bc03bc30U, 0x3d10db40bd1b690cU,
  0xbe3398b03da4fb42U, 0x3cc739d03e134dfdU, 0x3e0a9b79bd5019e8U, 0xbdc9b33a3d94c81aU,
  0xbdcf7f803d0b9834U, 0x3e257d0d3cda1a50U, 0x3e1cf99dbe00a2adU, 0xbe44ee033e46ac79U,
  0x3c6ad2003dbf6752U, 0x3d493f00be2ea333U, 0x3c73a0d0bd00a5a8U, 0x3e81bf733da1028eU,
  0xbe05ee6fbe51e16aU, 0xbdd1156d3e880280U, 0x3d19775b3e83e378U, 0x3d0199bfbe07d683U,
  0xbe509a413dbe4331U, 0x3d1bc3a83dc1e9b1U, 0x3e4413b9bca4b53cU, 0xbdb144253e499513U,
  0x3e8f58683e818e83U, 0xbd836671be741c0eU, 0x3dbe0aca3d39fef1U, 0x3e52b0ba3d9b52dbU,
  0x3e2077d3be35ae74U, 0x3d71ec14bd10e31dU, 0xbdc830f13e00d666U, 0x3e6755793ca301a6U,
  0xbe5c89193e1fdebcU, 0xbdb5be7b3e4dad00U, 0x3e7921a5be59bbffU, 0xbe03e9af3e399923U,
  0xbc159d023d4a7bcbU, 0xbccaf34bbe7338fbU, 0xbcf06004bb339b79U, 0x3c935cdc3e75148cU,
  0x3e5c2ff63cf71adaU, 0x3d3646ac3e76a74aU, 0x3b8165d8bd1523ccU, 0xbd3b7399be4c7b6eU,
  0xbd3a89143deb5170U, 0x3e842d7c3cd367e3U, 0x3dda3b6cbe3de96eU, 0xbe31f4083c4a6181U,
  0x3dde20773e2afcf6U, 0x3d996aa4be3fa550U, 0xbdced41b3e67b8f1U, 0x3e252ba1bdef3b9aU,
  0x3dbf6c65bd67cbb5U, 0x3e1f2a313e04a364U, 0x3e05222e3e466714U, 0x3dd77ee53bcab537U,
  0xbc9da00abd25465fU, 0x3db700fdbc1405f2U, 0x3dde34de3e076fb0U, 0xbe4514a13e29a473U,
  0x3e3ce9583e8f45acU, 0xbc46959f3e1886b7U, 0x3e13e96f3b88ebbaU, 0xbe0d2b713e2dd8c6U,
  0x3e3b2eb4bdc43ef2U, 0x3dafa7163ce328a5U, 0x3e01b4003dad7a2eU, 0x3af5ee763ddaa19aU,
  0x3df44facbda099daU, 0xbd85e1063e8cf592U, 0xbca08e64bdb291b0U, 0xbe1a90693df643aeU,
  0x3e509a853e713e30U, 0x3e4f5871be11a553U, 0xbd834b5bbcfe5e52U, 0x3e03481c3e0f60b8U,
  0x3e554907bb4f171aU, 0x3da100c13c52bfe6U, 0x3dacfbd43cf3e415U, 0xbd8d59b3be1bcfe6U,
  0x3d67cc6f3de8e3a6U, 0xbd06456e3e4e9709U, 0x3d81bbbdbc0a1488U, 0xbe3043483dc6e48bU,
  0xbcc8fc463da41585U, 0x3e9414aa3e1044d6U, 0xbd37c9ad3e280566U, 0xbe0851db3e4bcbd8U,
  0x3c51cdd6be5e46a9U, 0xbce99acc3e50e309U, 0x3e007892bdb23649U, 0xbe396d993bc7fc92U,
  0x3e476ec63e17c48dU, 0x3e286fdbbe6048e8U, 0xbdf52118bd850fa1U, 0x3e0a72b13e04343cU,
  0x3d0ccada3dfbd3c0U, 0xbd01babb3d6fe646U, 0xbe3308153e142fa0U, 0xbd1dd033bd97b71fU,
  0x3c444892be17b673U, 0x3d56640c3e7197ddU, 0x3de2a429be56180dU, 0xbe782e383d70305dU,
  0xbdcaab02bd32cd6cU, 0x3e18b3173d9f5bf0U, 0xbdcdd7283d7ee41fU, 0x3dec67913c281b4aU,
  0x3d912ac4be681e9fU, 0xbe118bd9bcaa9857U, 0x3d9ea20c3e86b78dU, 0x3df0dd43be147942U,
  0x3dcb9fd1bd92b060U, 0x3c297dd93d759b11U, 0x3d201c583e18ba30U, 0x3c661c513dd80df5U,
  0xbd1ed2723e89cd6aU, 0xbc1cbcd5bdc12751U, 0x3e1dc6133c5badd8U, 0xbac1ffeb3e42f175U,
  0x3d9a883fbe08f422U, 0xbd58c988bdbca822U, 0xbe39d535bc1548a0U, 0x3e2fc3d6bcb5281fU,
  0xbe0a3122be0416ddU, 0x3a0a5abe3e899c58U, 0xbde27278bcbc57a5U, 0x3daea5423e0feafaU,
  0x3dedaf6ebe297dfdU, 0xbd4e6c343bb36ba0U, 0xbe431d6a3df4b052U, 0x3cdb95803e306f87U,
  0xbe19a0b0be3215b7U, 0xbda4c98d3e47a637U, 0xbd92cb943e22c389U, 0x3d66e95cbdc8d767U,
  0x3d5f96cc3d66244cU, 0x3e3acd333e05dce9U, 0x3e40de733d6df564U, 0xbe37a92a3e2580ddU,
  0xbe1aecb03d9e37aeU, 0xbe217c80bd7e408cU, 0x3e24f639bdf79c8dU, 0x3d40c14c3dd3e292U,
  0x3de0d2623e3b90d3U, 0x3caf03003e10b837U, 0x3e0347e1bcefb1b0U, 0xbd28e2a83d8185daU,
  0xbe0dd7babdcb31daU, 0x3cc062683ca77518U, 0xbe22c1da3ccc6ce8U, 0xbe4bb193be107fd0U,
  0xbd6205ccbe3cf723U, 0xbe18d9fa3ba15600U, 0xbdef637a3dd192c2U, 0x3d728a84bc308660U,
  0xbe335beabe40d4fdU, 0xbdd7e653be2cc89aU, 0x3d939e0ebe2f5007U, 0xbe29f40dbd257340U,
  0xbdf48ebabd8fdc94U, 0xbdb0aababe3839e0U, 0xbde3c7dabdf2ec53U, 0xbd35dc00bdb23153U,
  0xbcff78303e2b0649U, 0x3d2514283e2813b7U, 0x3dbd470e3de803c2U, 0x3e00b8593d1d1a80U,
  0xbdb6f0edbd8108a6U, 0x3e366f6d3d1a57e8U, 0xbd5c4b983c080da0U, 0xbd6fa3e83df5d802U,
  0xbcff1950bdfdd40dU, 0x3d8692c2bbe37200U, 0xbe0f7d203d327df4U, 0xbd55ea183e2a2f99U,
  0x3c4310a0bd608a0cU, 0x3e213da3bdcda607U, 0x3e2e3c893dd74a5aU, 0x3e421f09bd9dd48dU,
  0xbe295a1dbe3cdc0aU, 0xbe2ed033be10b22aU, 0x3dc308dabe2a86caU, 0x3e496b8dbdee9b7aU,
  0xbcb086303db4666eU, 0xbc4089603d4343f4U, 0x3dc405423d3403c0U, 0xbc4747003b97bf40U,
  0x3daacdfa3d853a12U, 0xbc2144603e038f2dU, 0xbdd3df0dbde0bdcdU, 0xbe3c9310be01da1aU,
  0x3def8cc63ce6b6e8U, 0xbb834a00bd98cab4U, 0xbdd9b4133e2a8fd7U, 0xbddd3e0d3d4bbbc0U,
  0xbdad8560be1d1ed6U, 0x3dc42da23d4cf374U, 0x3e00ae2dbe19f083U, 0x3df59546be07d636U,
  0xbd39a7c03dd4fdceU, 0xbe467280be218a80U, 0xbda9e31a3b0ca800U, 0xba01e7353e428413U,
  0x3d9f9d383ce83046U, 0xbe0f54e9bd8b994eU, 0x3e784396be071bc6U, 0x3d7f17663dc9c1e2U,
  0xbe119f133e9114d2U, 0x3e0ca390bd248b96U, 0xbd688ad8be11016cU, 0x3d91566b3e564eb0U,
  0x3cb267f13e26bf6aU, 0x3d07b760bcac1a68U, 0xbd76a6a63e49ed15U, 0xbd01b113be093b26U,
  0xbcfdaac1bdcedeb3U, 0xbe7d1b95bca1d42bU, 0x3e1fdaaf3e645a37U, 0x3d9e39483e0b8ea8U,
  0x3c4d5bc4bdaa9d0aU, 0x3e45d20a3d6d9958U, 0x3e0cd9293dc533dcU, 0xbe4b2ba03d4a8f12U,
  0x3ba30c903e385280U, 0xbdbbc41ebe068fbbU, 0x3d8fb0933da695b9U, 0x3e6e26213e745902U,
  0x3de835273dec64b2U, 0x3dbc03773e5f5ea5U, 0x3e5a8774bc810816U, 0xbd3cb159bbe809b8U,
  0x3e174dc53e0fc337U, 0x3ca15bfb3e434fc3U, 0x3d576c693dbfb1ffU, 0x3e0874553d88539cU,
  0xbd08cfd83dab7f03U, 0x3e1d7c963d1b3e34U, 0xbe698b483e67d734U, 0xbd485a2b3cc9d864U,
  0xbce3f531be3e9f7bU, 0x3dbde5773d9d9d8aU, 0xbb4f3c6ebbafc06cU, 0xbd8941f200000000U,
  0x3d7b3c7300000000U, 0x0U, 0x3db55a6600000000U, 0x3d9f1fb100000000U,
  0x3dd23acfU, 0x3d8f27dfU, 0x3c72a6cbbb4f3cf4U, 0xbce53adaU,
  0x3d9fa3063cc4be39U, 0xbb4f3ce2U, 0xbcced27900000000U, 0xbd40698500000000U,
  0x0U, 0xbd8d17613d33dfb7U, 0x3db2c3003df2af59U, 0xbbfba320U,
  0xbb4f3b92U, 0xbad6e30ebc31270aU, 0x3db173d7U, 0x3d96faed3dbbe53aU,
  0x3d9309b4bd4cd3b2U, 0xbb4f3aadbb9f4f83U, 0x3dec8a443caeddc8U, 0xbc6d6e6bU,
  0x3d8191f500000000U, 0x3d9b708500000000U, 0x0U, 0xbbfa6f243dae687eU,
  0x3d9f4aa700000000U, 0xbbc4f90400000000U, 0xbc28fa2eU, 0xbcadc1f3bd60c62bU,
  0x3c514186U, 0x3db8d09600000000U, 0xbec232d63e333c5cU, 0xbe35816fbe661c3eU,
  0xbde3fc0e3c4ec5ccU, 0xbda3fb76bc94c228U, 0x3e06b9f8be891d53U, 0x3e3290a0bd98cc1aU,
  0xbc21ce90bd11a9d2U, 0xbc4039d0bec86587U, 0xbdbe4ee63d4eb398U, 0xbe7fbd833da73224U,
  0x3e4562b43db5c00dU, 0x3e89b1b43e2353f4U, 0xbdc98e303d468df0U, 0x3e36fd12bdeb539cU,
  0xbe5dbed93e5769f4U, 0x3cd524003e86ecc5U, 0x3eb14eeebe8133a8U, 0x3e8ce61e3e9a8030U,
  0x3de0b582be83eabbU, 0xbdcf00e9be409d68U, 0x3e0cfe243e09579eU, 0x3dbe9c99bd897d91U,
  0xbe9b89a43e759482U, 0x3e83f2a93dbd2c6cU, 0xbe1d663e3e3726b9U, 0xbeb05e18be05eaeeU,
  0xbc1b3b483c8e0346U, 0xbe319b8c3e016372U, 0x3dd57efcbde1372dU, 0xbe5e750ebe948de7U,
  0xbe62d880bd4fe3a0U, 0x3dc3c0f43e89b02fU, 0x3cc449a0be4031d7U, 0x3d884b2f3db3c855U,
  0x3eaae6603e7520bcU, 0xbe083a8f3dc9a6e0U, 0x3e3bbb6abd085d64U, 0xbcac45673deb2c3fU,
  0x3e5ca09f3e443377U, 0xbb4be8c4be363a85U, 0xbe9536273d39fc78U, 0x3d9093fabd9e3a56U,
  0x3c0979c03e53deaeU, 0x3ecae26b3d486178U, 0x3e4e6ff5bdc03a18U, 0xbcb190703eb7a5f3U,
  0x3d543c483e88bff4U, 0x3e0d8ce03e341ed6U, 0xbde795d2be9ee0dcU, 0x3eb68f7c3dedc385U,
  0xbe10539e3d47d64cU, 0xbc7265bcbb54f000U, 0x3dc0fabc3c53a680U, 0xbcd242383ca42f30U,
  0xbdbe8a8c3eb6a1f4U, 0x3dc7721f3e656833U, 0xbe21eae9be22db21U, 0x3e6fa5543e3ba6c4U,
  0xbe3d3bf2bdfe5982U, 0x3e747c923e2d3ad9U, 0x3e5529fc3ed83212U, 0x3e26bb67bdd59536U,
  0x3d95531e3d11b86cU, 0x3eaa25853c657a0fU, 0xbe7c3b0e3e1e1e65U, 0x3d93ee533d53fea0U,
  0x3dd90c0c3ddbc048U, 0x3e2d17723e04218aU, 0xbb81ff5f3cc1b7d5U, 0x3e6fd3bbbd80aa4eU,
  0xbe2df98abe167562U, 0xbda3d7ecbccc819aU, 0x3d0c8c22beb7af7aU, 0x3b85e7003e20d6e9U,
  0x3e292f693db38734U, 0xbe2f3d583ea42e22U, 0xbd727193beba56e2U, 0x3d9e90743e1a3c14U,
  0x3e08b24e3e0ee8cbU, 0xbe1ead28be80ae26U, 0x3cc413d03bbd57c0U, 0xbe0074d3be329b5eU,
  0x3d1d8e61be980917U, 0xbe9304fcbe8264e5U, 0xbd3bbd883e6592aaU, 0xbcc6c10fbe8620b9U,
  0x3e032e333e060c54U, 0xbe55e629bec2d8b0U, 0xbe3c186e3d2150c8U, 0xbd81dfd23e97584eU,
  0x3df9bca03e90d5dcU, 0x3e5ebab03dd471c8U, 0xbe6caae83ea2500cU, 0x3db65a44be8a9d9aU,
  0xbe3cb5103e44990cU, 0x3d2bc0773d652e78U, 0xbbc50d0cbe153037U, 0xbd9c3bca3e06ab44U,
  0x3ea2aecf3e5f1767U, 0x3e86a84c3e10add3U, 0xbec8591dbd220500U, 0x3e8643a0be1bbc04U,
  0xbe7c1b2b3e4ad2e0U, 0xbd5180b03ceeda01U, 0xbe19df46bd4164daU, 0xbeafbd78bc978d58U,
  0xbd1c677c3e972010U, 0x3e18276ebe5262c0U, 0x3e44013c3e2e7654U, 0x3e56a2393cce72c0U,
  0xbead5fd63e968d41U, 0xbd673a18be6c82d5U, 0xbc0f9db0be91f04dU, 0xbdf296a4bdc11b4eU,
  0x3e787d46bc027540U, 0xbe3588e5bc43f260U, 0xbe48bb253e117b90U, 0x3d9d42143e4939b2U,
  0x3e177378be26ad88U, 0xbbd1fe00bcf20cc0U, 0xbdbd7990bce821a0U, 0xbe0bd046bccbed60U,
  0xbe5a3ede3dfb28d8U, 0x3db79ab83d80d9a8U, 0xbe542009be3d0368U, 0xbe25f9f83e5cbc8aU,
  0xbd910b7c3e2458c0U, 0xbc3b8ce0be38529fU, 0x3e6426acbde48ad6U, 0xbd8d1eb4be3ecfe0U,
  0x3d781b803dc081a4U, 0x3d715dc8bbf6b400U, 0xbe205aeabd2533f0U, 0x3ddb86cc3d579c38U,
  0x3d969a94be405f0cU, 0xba19ca00bcc08bf8U, 0xbc9ff8283e21adf6U, 0xbe82defc3d11ffa8U,
  0xbdefc0d8bd5520e8U, 0xbd7840a03df0a228U, 0xbc341a50bd5b6b6cU, 0x3c8fafb0be4e338dU,
  0xbe122e443e61ee78U, 0x3c67bf203e24fbfaU, 0xbe8209d9be48650eU, 0xbdf2ed0abcdfe258U,
  0x3db0ce2cbe37d4d4U, 0xbe0ace93be712608U, 0x3e4f3a4e3e272d7cU, 0xbdfa8edebe230562U,
  0x3e1903fd3ec6aa7dU, 0x3d8bc3d13e66f904U, 0xbdd77aacbe197607U, 0xbcbd2b00bd2222c2U,
  0xbe49a8e6be888d10U, 0xbcc831003da5e9a8U, 0xbde67d083de2000bU, 0x3cf346c7bd25d68eU,
  0xbdca4704be628c81U, 0xbe5ec6e2bd97f078U, 0x3e33a0343e492c81U, 0x3eb147633e5b522cU,
  0x3d00e63e3cec4172U, 0xbdad02f4bcbf4728U, 0x3e1714703e991240U, 0xbd23e85cbea4e7dbU,
  0xbe96c848be3f3e52U, 0xbe9150b43ea393d6U, 0xbdeac18c3e0831d9U, 0xbd604145be121db1U,
  0x3e6af4df3d9e07d4U, 0xbdb7f6a53e22e6bfU, 0xbe9bba3ebc04ad00U, 0x3e993b4b3d7c08bdU,
  0x3e57603abe39284aU, 0x3e51aef9bde419ceU, 0x3e5d997ebe40be02U, 0x3da0c64cbdcde7fcU,
  0x3dea5f84bdb5114bU, 0x3dd513c03e4f885eU, 0xbe1f137abe051443U, 0xbd3750b0bdae75d6U,
  0x3e498f74bdcf8b45U, 0xbdb53c3b3c174b2eU, 0xbcdd00d33e7ba31aU, 0xbd4763383d6a68fbU,
  0x3e7ba852bdc454eeU, 0x3e8a1f843e4b3d26U, 0x3e22dcd23c30d8eaU, 0x3b89bf62be2df0f2U,
  0x3e82d1cf3d57cae0U, 0xbd826569be1f64faU, 0x3ced10603e6b4834U, 0xbe7f8fe03e6ba866U,
  0x3db0f407be114890U, 0xbe16abe6be889b18U, 0x3d9990003e99b85bU, 0xbdd046f53db6918eU,
  0x3d02db903e41f358U, 0xbe9bfb5b3eb81eb6U, 0xbe1467733c82438fU, 0x3e59c5753e4dc7d2U,
  0xbe8cfbe2be02f17eU, 0x3e4c97243d600588U, 0xbb4bed23be896bc1U, 0x3e376cc13e09c42bU,
  0x3e489abebddbd694U, 0xbe0195bbbe5fc9d4U, 0xbde2a14b3ded8113U, 0xbd7e0b74bd335e95U,
  0x3df2f7dcbe22fe70U, 0xbdcc0ed43ea5bff3U, 0x3e222ebc3e1ad266U, 0xbdff5d1b3e742ac1U,
  0x3d65c8f03e1d2471U, 0xbdc55f53be2b2d90U, 0x3da79e06bda0b358U, 0x3c9132903e82bdd1U,
  0xbe77281e3d796dffU, 0xbe9574abbdd4ba46U, 0x3e6d3e4bbe531672U, 0x3dad29e83e341193U,
  0x3cf7827e3cdffdd5U, 0xbdf2a1423e830965U, 0x3e240e783e154598U, 0x3eae84eb3d84bc75U,
  0xbe0fcbdebe233fc2U, 0xbe234a7b3d0bbfddU, 0x3e4c0d8abd5eeef6U, 0x3e74e2bc3e064f56U,
  0x3e17098e3e537266U, 0x3ddfc0e8bdc12e0fU, 0x3e8a33d0bbfd125cU, 0xbeace8ec3e4a9074U,
  0x3def3e313dfb751cU, 0xbe840a04be63bca7U, 0x3e1408bebe1d4695U, 0xbe5d51453d4cab9fU,
  0x3e1f2be6be4ca496U, 0x3b88d7003c2a5131U, 0xbd1f847c3c464301U, 0x3e780858bdbe1094U,
  0x3ee23b8abded7bc3U, 0x3e789f103e140e50U, 0x3e80d3733c4c1820U, 0x3e669aebbd6359a4U,
  0x3ebf7fc4be4d8fd8U, 0xbc849b47be6767c8U, 0x3e41e9243eca20f0U, 0x3e9072e63e3a824dU,
  0xbeab55053da321c5U, 0x3dc30cf53ea9abb5U, 0xbe745c23be77fdb7U, 0xbd9f72783ea6f090U,
  0x3df1f6c0bcbd5b39U, 0xbcf39d2c3cf09050U, 0x3d6492d83e6ff579U, 0x3e28e2f43eafef6dU,
  0x3c12abc53e1a9a58U, 0x3d5752a9be3567e5U, 0xbe2bb8ce3ea55dc9U, 0xbdd41daebe00be2fU,
  0xbe002becbc346d8aU, 0x3ceaa2993e16e132U, 0x3ce79fb03daf3a18U, 0x3e245a473e608c98U,
  0xbd2061173db80264U, 0x3d862654ba1f2600U, 0x3decd7133d68f1e0U, 0xbda4ea863e80eb73U,
  0x3c52a6e0be1558d9U, 0x3e18d5f23e391592U, 0x3e1b87b03c24525eU, 0xbe1ed23a3e0e699bU,
  0xbcc829c5be5b6f17U, 0x3e11fe623e6a0a7aU, 0x3daad8f1be30d176U, 0xbe5512df3e4a3d4cU,
  0x3c738a003cd90b00U, 0xbe5d5d843d81bce6U, 0xbd6bed1c3d951860U, 0xbca84540be011babU,
  0xbe660b68be622eb3U, 0x3d372aecbe027b07U, 0x3cdce970be6d8ec3U, 0xbdfb0acebd0def4cU,
  0x3deebbb4be71788fU, 0x3dd621d4be2135c5U, 0xbd9c2bbc3d1caa70U, 0x3de901a83ddc7043U,
  0xbcc7a05cbc6adaa0U, 0x3e4906ad3e08885eU, 0xbe284fd83e354142U, 0xbd778f78bd877a95U,
  0xbc28a4693c8a12f0U, 0xbdf3fe38bd95e8e8U, 0x3d17cbe83d85d910U, 0xbe21c4babe4d75a6U,
  0xbd510fb83e77e50cU, 0x3d2d99bf3c872030U, 0x3e297565bd3c4c16U, 0x3e5feee93e862c75U,
  0xbe62a42e3e0e88d4U, 0x3dc55a28be7bace6U, 0x3e22aa483dcef458U, 0xbe02a1cfbe4cd33eU,
  0xbd780bc03e6e5ab3U, 0x3d376031be2a8710U, 0x3e1c2faabe40c2b6U, 0xbe74f2b33dae2ed0U,
  0xbdcd7209be328f7cU, 0xbd1421183e4ab3d0U, 0x3cbb1b403db35fa7U, 0xbddaaae8be222e28U,
  0xbdb4f8a03e5d7555U, 0x3e37f8bcbd1dda98U, 0x3d3d7b1fb9873400U, 0x3d2c7b3abe73703bU,
  0x3e1f19943bc74b6fU, 0x3e211fb2bc5971e0U, 0xbdc31617bd650548U, 0x3e8863ea3df1bd1fU,
  0x3e2aa69ebe75a40cU, 0xbe5f23ba3e4d142fU, 0x3e589a58bd904642U, 0xbe46f1093d83377cU,
  0xbd4edd8e3e2018b8U, 0x3c5264803e6e41daU, 0x3e5c00c83d231155U, 0x3e192394be069f33U,
  0xbe3b66ea3e7ea9faU, 0x3dea5b84bd9d579cU, 0x3db54e003df5a5beU, 0x3cf479e03e0a4e21U,
  0xbd9a50b03e8399c5U, 0x3e203589be1290e7U, 0xbd68773cbd5a4b04U, 0xbd5892c8be6416a2U,
  0xbc4987003e10f76aU, 0x3d740fb03df71968U, 0xbe7cbd243e7fa276U, 0xbe83ec2ebcd8da30U,
  0xbe0df0403e150552U, 0xbb1b94803e2ba0f2U, 0xbe6b43123e45f226U, 0xbe65a51c3e1e7e78U,
  0xbe1749e2bcef8028U, 0xbd84b8d83dad55bcU, 0x3d1bc5883d2f4650U, 0x3d4bcdb8be1935ddU,
  0xbe3bae923de39420U, 0x3defdff43c428860U, 0xbddf3d8c3e1b187cU, 0x3de86484baec9100U,
  0x3dea1cc4bd503a30U, 0x3e282a2e3d727c90U, 0xbe528e26be80e9deU, 0xbdae0e383e08e508U,
  0x3dc2f7a8be7606f4U, 0x3d9d7f34be171e12U, 0xbe7ec7d5bcd07780U, 0xbe095147bb2bd800U,
  0xbe507567be7422acU, 0xbd1e32e03ddbe7a8U, 0xbe57c9e53e054018U, 0xbd907606be222aeaU,
  0x3cb241f0be3790f9U, 0x3c871ff0be082930U, 0x3e1967e03e05c3d6U, 0x3da4c2e43e05e50cU,
  0xbd73caf03dca0a3cU, 0xbdfc28ca3e7bc79aU, 0x3e3830a6be427a12U, 0xbc9bf108bd701840U,
  0xbe53e8b3be674a82U, 0xbdd0db923de2e35cU, 0xbe295b0cbe5e48b6U, 0x3d1e97b8bd306288U,
  0x3dbe3a883dab26bcU, 0xbdb718fa3e748d3eU, 0x3c98f880bd9fc818U, 0xbdc1494cbd927262U,
  0xbe611d8abe5ee622U, 0xbe53dc19bdc8d090U, 0x3db070f43e210980U, 0xbe60a1e9be60ad5aU,
  0x3ca63eb0bd546a5cU, 0x3e0063e2be3c36deU, 0xbd9c9be63cee5db0U, 0x3e546182be2307a8U,
  0x3d5202703e5ec9d0U, 0xbd4ca1f8bd8645caU, 0xbde902663e571e36U, 0xbd744d403e6617acU,
  0x3e3a3be43da7edbcU, 0xbca1d9f03e687eb4U, 0x3d45ae983d824df0U, 0x3d5c8dd8be0c1e44U,
  0xbe31725abe23c931U, 0xbd9ac2d83c9e7200U, 0x3d78fe20bdf640c6U, 0x3db00ac0be2a9996U,
  0x3db699843e157eceU, 0xbe3ac6ffbe50216cU, 0xbb6d8d00be2fed2aU, 0x3e73e5b4be30368eU,
  0xbe795c9c3de7cb2cU, 0x3dc1a670bdecbe30U, 0xbe58ad0bbe82dd78U, 0xbe06f5983d8bf544U,
  0xbe1205093d3296f8U, 0x3df44600bd2bd978U, 0x3dcc72a3be393610U, 0x3c94823fbd4b46bdU,
  0xbe001cf9bd3004e2U, 0x3e7b19593e521b4cU, 0xbc291f02be3e58dcU, 0xbd93ec62be35bb26U,
  0x3d56b2ac3d40e930U, 0xbe8a3139be4e0d4aU, 0xbdcf548ebe87a0c9U, 0x3daf7cd43ccf9c38U,
  0xbe211f543e3aa9eaU, 0x3e2a2582bd63c79cU, 0xbcd81ab43ddf8388U, 0xbe80d9773e455cb2U,
  0x3ec4f67abcd6d9a8U, 0x3e8454753e633b84U, 0x3d3f59083e637894U, 0x3e32e36bbdacd87cU,
  0xbd9e2cfbbd60b1c9U, 0xbdd4a786bcd2573eU, 0x3da7e254bd85e410U, 0xbe065ddc3e06d9b9U,
  0x3e58fffe3e2149c2U, 0x3b110b753dbf1b1eU, 0xbe852d483e3cc061U, 0xbbc507c0be50131aU,
  0xbcf3524c3c64c1e9U, 0x3d84bb143dca1acaU, 0xbda00d333d1ed460U, 0xbd1fb3f83d6fd408U,
  0xbe7d86853d728b88U, 0x3db7ba51bcf0d207U, 0xbd96271dbe363f44U, 0xbd8c7cbcbd9a1daaU,
  0xbe1ac09abe063dffU, 0x3ea746983ed7a1eeU, 0xbd5849143e97b28bU, 0x3d3afd1fbd7e38a4U,
  0x3e17bd3d3e892bd5U, 0xbd9d51dcbcaa7776U, 0xbe460e08be7d190eU, 0x3c9867403e88e228U,
  0xbc4428903d3211f1U, 0x3b896a80bd3f3504U, 0xbda4ce1e3c4259e1U, 0xbca3d5bfbe334b14U,
  0x3ed66b35bd468fd0U, 0xbe4860d9be830b46U, 0x3dd955703e7fb784U, 0x3e961a55be3adb9aU,
  0x3e33db0c3e0d52c8U, 0xbe20f9763e08732eU, 0xbdeb91ce3e95cad8U, 0x3bd83ec0bd3cc181U,
  0xbcd2d98cbe04a1a7U, 0xbe80b99bbe298315U, 0x3e045bb03e015349U, 0x3e219484bddedbcaU,
  0xbe098dfbbe30bcdaU, 0xbe32be193e81e3edU, 0x3de2ef32be53f984U, 0xbe4b64dabdc5e926U,
  0x3dce19b4be6ff5e9U, 0x3e6178b23d8cc903U, 0xbe515452beca37f6U, 0x3e0d84dabe6aa1fcU,
  0x3cf45300bcc8c7c1U, 0xbc119fd03e40e4f4U, 0x3e4c8ed5be04fbb8U, 0xbd84903ebecbb0d9U,
  0x3e75a1d2be8e015eU, 0xbdb30411bbb55ef6U, 0x3dc7b5fbbd723d60U, 0x3d9051e83e2e12b0U,
  0xbe23fc5d3cc27040U, 0xbe121d3a3e08af77U, 0xbe0ff6fe3e4b0de7U, 0xbe4172f8bbe5b10dU,
  0x3dc8ebc23da380e8U, 0xbd99d1b1be0e56e6U, 0xbe137290be4db2f8U, 0xbe48484a3ce65310U,
  0x3d05764abe413eaaU, 0xbe22cc14baeaf329U, 0x3d927b40be69d77dU, 0x3dc2c2e2be3966c0U,
  0x3d633ad83e2681d6U, 0xb8b0b180bde17c96U, 0xbc238230be81027aU, 0xbe5614543e272ca0U,
  0xbe11c368bddf40f0U, 0x3da97cf83b2ca080U, 0x3d3779a73e3fad17U, 0xbe04b730be787ed5U,
  0x3ce521a03e06ac72U, 0x3cbf1b003ddf808cU, 0xbe2e7d95bdc34206U, 0xbe7e4e553d9f5ba5U,
  0x3e5c99953e31a7d6U, 0x3e1b1586be62181eU, 0x3e83baadbe163e30U, 0xbe75016f3d95b30cU,
  0xbc74ee10be405584U, 0x3dda06ae3e13bf7aU, 0x3d94b3e83dc06f58U, 0x3e5895743d6165f8U,
  0xbd9641423de1d170U, 0x3e46f31b3d5af448U, 0xbe36e1803e802cd3U, 0xbcd8e6b83c79f800U,
  0x3e10728f3e3cc776U, 0x3d9a12043e7317f0U, 0x3c3507a1be6fef42U, 0x3e786236bda665baU,
  0xbe4c27403e65048fU, 0x3e59827a3cd64f2fU, 0x3e530b163dbe52e4U, 0xbd50f8f03b4a9bb1U,
  0x3e09601c3c154600U, 0x3e7f30b23e9cb533U, 0x3d4bf9d63ea86ba7U, 0x3e47340ebe3532cdU,
  0x3e3c787c3d2ecf08U, 0x3d8c9a003d2c8e8eU, 0xbe1f872abe43dc73U, 0xbe2990a8bd79ed79U,
  0x3e3efa023cb41c80U, 0xbcb7a9c0bcec8b29U, 0x3e5fb83ebe830fc2U, 0xbe1228b03a59b600U,
  0x3e7cba8dbd0af81bU, 0xbe169f12bdb191feU, 0x3dc0dee33e042c14U, 0x3e1b591e3e3dc058U,
  0x3e11ae5f3e2e299eU, 0x3ec638f6be1b1c43U, 0xbe52e0c83e9dc1d0U, 0x3d1a781f3e874b0eU,
  0x3dea54613db85516U, 0xbe03cde83e876ccdU, 0x3dd8c5d8be1d7838U, 0xbe2824eb3b9bc80fU,
  0xbe0cff403e8754c0U, 0x3ec69f83bdbbd41eU, 0xbd4d71a0bd466630U, 0x3df1a2c4be1acc90U,
  0x3e6fea99be46961eU, 0xbebd7a583dd18380U, 0x3e7d5ddcbded9a23U, 0xbe094894be1edf26U,
  0xbd90148c3e2a744aU, 0xbda52aa53dd326dfU, 0x3cde45e500000000U, 0x3d9990cb3ce099b3U,
  0x3b10be14bc17fbfdU, 0x0U, 0x3c918f1dbb174bb6U, 0x3dd0c0fbbc2068b4U,
  0x3f1380b43cfcc7dfU, 0x3f005edcbf0b1322U, 0xbeb3395fbeaa461eU, 0x3db1f0d33f15c7ebU,
  0xbea71b25be65ab1eU, 0xbef8816c3eee49fcU, 0x3e7ed228be188384U, 0x3c9c86613f215061U,
  0xbebd915dbef3d6fbU, 0x3f0197c63f03acd0U, 0xbeb07a7b3f0cec07U, 0x3dd73ef4bf06e6faU,
  0x3e186f483ee726b0U, 0x3ef197cb3ef14daaU, 0x3e9a08723f031674U, 0xbf08531d3f04fde5U,
  0x3ea1b1e83f352c12U, 0x3d303ce43daa4f1bU, 0x3d0559d33ed4027cU, 0x3f074402bf0fce96U,
  0x3ec331223e13af74U, 0x3e93c591bef70768U, 0x3dcf3978bdd60718U, 0xbd9f9760bd4cc33aU,
};


ai_buffer g_gesture_data_map_activations[AI_GESTURE_DATA_ACTIVATIONS_COUNT] = {
  AI_BUFFER_INIT(AI_FLAG_NONE,  AI_BUFFER_FORMAT_U8,
    AI_BUFFER_SHAPE_INIT(AI_SHAPE_BCWH, 4, 1, 360, 1, 1),
    360, NULL, NULL),    /* heap_overlay_pool */
  };
ai_buffer g_gesture_data_map_weights[AI_GESTURE_DATA_WEIGHTS_COUNT] = {
  AI_BUFFER_INIT(AI_FLAG_NONE,  AI_BUFFER_FORMAT_U8,
    AI_BUFFER_SHAPE_INIT(AI_SHAPE_BCWH, 4, 1, 27552, 1, 1),
    27552, NULL, s_gesture_gesture_weights_array_u64),   /* gesture_weights_array */
  };


/*!
 * @brief Get network activations buffer initialized struct.
 * @ingroup gesture_data
 * @param[in] ptr a pointer to the activations array storage area
 * @return an ai_buffer initialized struct
 */
AI_DEPRECATED
AI_API_ENTRY
ai_buffer ai_gesture_data_activations_buffer_get(const ai_handle ptr)
{
  ai_buffer buf = AI_BUFFER_INIT(
    AI_FLAG_NONE, AI_BUFFER_FORMAT_U8,
    AI_BUFFER_SHAPE_INIT(AI_SHAPE_BCWH, 4, 1, AI_GESTURE_DATA_ACTIVATIONS_SIZE, 1, AI_GESTURE_DATA_ACTIVATIONS_COUNT),
    AI_GESTURE_DATA_ACTIVATIONS_SIZE,
    NULL, ptr);
  return buf;
}

/*!
 * @brief Get network weights buffer initialized struct.
 * @ingroup gesture_data
 * @param[in] ptr a pointer to the weights array storage area
 * @return an ai_buffer initialized struct
 */
AI_DEPRECATED
AI_API_ENTRY
ai_buffer ai_gesture_data_weights_buffer_get(const ai_handle ptr)
{
  ai_buffer buf = AI_BUFFER_INIT(
    AI_FLAG_NONE, AI_BUFFER_FORMAT_U8|AI_BUFFER_FMT_FLAG_CONST,
    AI_BUFFER_SHAPE_INIT(AI_SHAPE_BCWH, 4, 1, AI_GESTURE_DATA_WEIGHTS_SIZE, 1, AI_GESTURE_DATA_WEIGHTS_COUNT),
    AI_GESTURE_DATA_WEIGHTS_SIZE,
    NULL, ptr);
  return buf;
}


/*!
 * @brief Get network weights array pointer as a handle ptr.
 * @ingroup gesture_data
 * @return a ai_handle pointer to the weights array
 */
AI_DEPRECATED
AI_API_ENTRY
ai_handle ai_gesture_data_weights_get(void)
{
  static const ai_u8* const s_gesture_weights_table[1 + 2] = {
    AI_PTR(AI_MAGIC_MARKER),
    AI_PTR(s_gesture_gesture_weights_array_u64),
    AI_PTR(AI_MAGIC_MARKER)
  };

  return AI_HANDLE_PTR(s_gesture_weights_table);

}


/*!
 * @brief Get network params configuration data structure.
 * @ingroup gesture_data
 * @return true if a valid configuration is present, false otherwise
 */
AI_API_ENTRY
ai_bool ai_gesture_data_params_get(ai_network_params* params)
{
  if (!params) return false;
  
  const ai_buffer_array map_activations = 
    AI_BUFFER_ARRAY_OBJ_INIT(AI_FLAG_NONE, AI_GESTURE_DATA_ACTIVATIONS_COUNT, g_gesture_data_map_activations);
  
  const ai_buffer_array map_weights = 
    AI_BUFFER_ARRAY_OBJ_INIT(AI_FLAG_NONE, AI_GESTURE_DATA_WEIGHTS_COUNT, g_gesture_data_map_weights);

  return ai_platform_bind_network_params(params, &map_weights, &map_activations);
}


AI_API_DECLARE_END
