
/**
  ******************************************************************************
  * @file    gesture_data.c
  * @author  AST Embedded Analytics Research Platform
  * @date    Tue May 24 23:48:56 2022
  * @brief   AI Tool Automatic Code Generator for Embedded NN computing
  ******************************************************************************
  * @attention
  *
  * Copyright (c) 2021 STMicroelectronics.
  * All rights reserved.
  *
  * This software is licensed under terms that can be found in the LICENSE file
  * in the root directory of this software component.
  * If no LICENSE file comes with this software, it is provided AS-IS.
  ******************************************************************************
  */
#include "gesture_data.h"
#include "ai_platform_interface.h"

AI_API_DECLARE_BEGIN

AI_ALIGNED(32)
const ai_u64 s_gesture_gesture_weights_array_u64[ 7932 ] = {
  0x3cb081d9bd6c308eU, 0xbe301b5e3d0ed1f0U, 0x3df2a0833dc770cfU, 0xbba95683bdd60c2aU,
  0x3d70457b3cea912cU, 0x3d22617e3d002ca2U, 0x3d946631be2f3a9dU, 0xbe09dd043d9d55fbU,
  0xbde253783e00dd59U, 0xbbb7b78b3d928c86U, 0xbe2f5b57bdedff81U, 0xbd60d3f13d0ec1bcU,
  0xbcbc2c153ca43b0dU, 0xbd3bd052bc3bb44fU, 0xbd8055b53e161bc7U, 0x3e1007b8bce23ae5U,
  0xbe2f113d3b5f50bcU, 0xbd15c947bd9b6b1aU, 0x3d9e6551bd4df964U, 0x3d603530bd9e175cU,
  0xbdb6d23fbd58ea6bU, 0x3d830d73be128e15U, 0xbe0c2a48bab05c17U, 0x3d3ea33e3e157b70U,
  0xbd922d13bdead67bU, 0xbd745363bd961c6bU, 0xbda630cc3d732181U, 0x3c51fe91be324346U,
  0xbe05a02b3d38b538U, 0x3c96c4c7bd220370U, 0x3bf9819abdcc8242U, 0xbd95525bbde05e87U,
  0xbd8e5f2d3e2cee60U, 0x3e01c68cbd82212eU, 0xbe0fccd23bcdf845U, 0x3d868c07bd9d5070U,
  0x3de2605e3d8046b9U, 0x3d1a29d53df6f7f7U, 0xbdfc509d3ccb5db3U, 0x3e37ab4dbdf5d6afU,
  0xbe1f9a0ebd90ed9eU, 0xbda56ebf3d91e37dU, 0xbbf884abbd2c08b2U, 0xbdd884b43dd4ddbfU,
  0x3b174c5fbd7b59feU, 0xbd2b0b61bd67a825U, 0xbceba6e73c689554U, 0x3d537afebd1b6747U,
  0x3da7e8a4bd8b7e4eU, 0xbd83449e3c2c5dc4U, 0xbcd9e8563cf202d2U, 0x3da0acb63c576dc0U,
  0x3d5aecb9bb83db30U, 0x3d29941f3e158f90U, 0xbc6aedb03a584121U, 0x3cc985133c9b00c1U,
  0x3d247640bd0cc1e8U, 0x3d1b2edb3d26ec7cU, 0xbe27682dbdf0858bU, 0x3decbd383e28c575U,
  0x3e1f1e51be30b1baU, 0x3ce3a523bdb3d4c9U, 0x3d4369cc3cf8051cU, 0xbd98bc98bd8c6484U,
  0x3c07df05bda965bbU, 0x3e035d103e37984fU, 0x3e138541bdcb4c74U, 0xbe267083bb41854eU,
  0xbc99562e3ca2db78U, 0x3b2bba38bdb89d32U, 0x3d94e88b3ca9370eU, 0x3d199e76bd67e798U,
  0xbd1ae42bbddb53cfU, 0xbe0abffdbc932c1aU, 0xbcb1c55c3d27c666U, 0xbd923b0cbdbf970cU,
  0x3d99352dbe01ec3aU, 0xbb0061d83e25d00dU, 0x3a3b915d3d5ec843U, 0xbe03debfbc9ca064U,
  0xbd8d68d23e2265e1U, 0xbc37e109bdc97582U, 0xbe35f6743d7fe718U, 0x3bb518003e1f62c3U,
  0xbbf31d4bbb32fec3U, 0x3afbd9243decdf98U, 0xbc5e554e3de65ecaU, 0x3e06e226bd608011U,
  0xbdfe04e03e02dce6U, 0xbda33c393d9e608aU, 0xbc587c39bdd22277U, 0xbcd396e53cd98a76U,
  0x3cb20bff3db2a59eU, 0x3d1d9b9c3b0f6831U, 0xbe0e7d913d8e3830U, 0x3bbe9521bd68dc2cU,
  0x3e14e067be2285fcU, 0x3b7dd15c3d92c0acU, 0xbd0e72633e265148U, 0x3dd1a84bbe18f7deU,
  0xbd97ffbabd9fb0f7U, 0xbdd802c6bd9a14adU, 0x3dc9542abdbbff8cU, 0xbe01d7d23ca2e159U,
  0x3cf216d0bc77ed4bU, 0x3e246b6abd32bd36U, 0xbdb6f5de3d9778bfU, 0xbd445e59bcb98862U,
  0x3de5ca023d8cbe10U, 0xbd0852653d0faa1fU, 0x3da1d9953e1bfa31U, 0x3e030cf93d2af71fU,
  0xbe1bdc9f3d568b38U, 0xbd9235ed3e2ebc9bU, 0x3c823fa8bd60a199U, 0xbdac2acbbdca901aU,
  0xbd57860fbcbd1444U, 0x3d65d6f8be0a1be7U, 0x3d61c0bd3dc52d76U, 0x3d61538f3e013216U,
  0x3e39506abd299844U, 0xbe1ae2d2bdd1c509U, 0x3dacd4323d79c6d9U, 0x3d8ac4c1bd94d347U,
  0x3d84cf863d901ff3U, 0xbda2052f3dbfc250U, 0x3e389d733d0ec513U, 0x3bae4e67ba0e8162U,
  0xbd5774523e2967fbU, 0xbcc437543c307b5aU, 0xbd072a1b3b6ce2abU, 0x3d35856d3da97699U,
  0xbd9b8f0e3bce0b18U, 0x3d96b4363e021e4fU, 0xbda1bdfc3e262f3eU, 0x3d9761db3c26592fU,
  0x3cf588973a29bd4fU, 0x3d8c1a4d3e2e0a5fU, 0x3c237eabbd3082ebU, 0xbe30cde8bddf98d8U,
  0x3cdb55c2bcbfb20dU, 0x3db2f461bde744c9U, 0xbddd106e3da9d3dbU, 0xbd480dab3e2bf272U,
  0xbd3e4f02bd7c6063U, 0x3d47b5f83e01c419U, 0x3da1b95d3e274ff5U, 0x3df60344bdf035d7U,
  0xbd85e2bb3dd3e171U, 0xbe04e2fe3d2c3ad9U, 0xbc7b1af03c47ee60U, 0x3ce749d03db66f30U,
  0xbdff8109bda56b14U, 0x3c76b8303d94fc84U, 0xbda52eee3d47eb40U, 0x3c76dc303d80c266U,
  0x3e046f173d0827b8U, 0x3db30d3cbd7a7756U, 0xbd599d8e3decd4f4U, 0x3df6d9c23c02d760U,
  0xbdd117d3bc37ad90U, 0x3ccde748bd66c27aU, 0xbe0605413dfb2b8eU, 0xbda572a73d02586cU,
  0x3ba340003d2cfe60U, 0xbd46f5903db8ef3aU, 0x3d48e26c3dcdd7f8U, 0xbdd89e893ac8fb80U,
  0xbdbc82803d190264U, 0x3d92862ebbefe120U, 0x3e0444393dfca35aU, 0x3c0ae3d03db34712U,
  0xbd8b5dd7bd35a5daU, 0xbe004ece3dd01fb6U, 0x3d95e50c3dd98df6U, 0xbde5bbb73d291c28U,
  0x3d289f2cbdc8ceb2U, 0xbde710f03d8c8f6eU, 0xbe042f0fbb3e4600U, 0x3cb4bf10bdae6776U,
  0x3c23c060bc2c4198U, 0xbd2b0a163d165d50U, 0x3d840da63d164a54U, 0x3d5153003d971380U,
  0xbd8e211c3d8b26acU, 0xbd8943bf3c4d2cd0U, 0x3da58ffcb9292000U, 0xbdab5a0ebdbe5445U,
  0xbd0b4bb4bce99d6cU, 0x3deffd803deaf8c6U, 0xbcaee32cbddb9e48U, 0x3ad0d1803d819afaU,
  0xbdfdbaeb3d1d78c0U, 0x3cc4cf203c12d290U, 0xbe05813a3d43aa54U, 0x3d94afe43c5cbf40U,
  0xbdd5f5563da9ece2U, 0xbda319d83c1744e0U, 0xbdf5036fbd6f7fb0U, 0xbd040118bd879080U,
  0x3da8324ebdfe87c7U, 0x3dc06f60bd4bb20cU, 0x3d18aa24bd2089b8U, 0xbcc70578bc1c4628U,
  0xbcfe6e1c3dacf0ecU, 0x3dfdb6e63d5028e8U, 0xbdecd9e93dad6648U, 0x3c7904803db81a24U,
  0x3d2516b43d567d3cU, 0xbd3ead78bddfe03bU, 0xbddc32093d2ba67cU, 0x3d0e2250bc1b40b0U,
  0x3dc1c264bdf06e97U, 0xbde9cbd0bd2d2532U, 0x3d013b58bd67d786U, 0x3dbd6a82baa6fa80U,
  0xbdf84559bd5847ccU, 0xbde66840bddfc4d5U, 0x3cf357e03de653baU, 0xbc8add54bd028f14U,
  0x3d9f1a2ebdb97840U, 0x3dc8144cbd47b04eU, 0x3cba96883d70b758U, 0x3c8fcb703c4e63f0U,
  0x3b89ab603d322370U, 0xbd8bc64a3ce94f40U, 0x3c5caf903d9976faU, 0x3cab4798bdf33a5bU,
  0x3dd76ca23d327344U, 0xbd9e1498bdc81650U, 0x3dbead843cd65838U, 0xbccc35c43da1a406U,
  0xbd6320503de4f91eU, 0xbd98e346bcd13538U, 0x3dfcd4c23d7c84a0U, 0x3df6abc6bdd01b7dU,
  0xbd40a4e6bd4e6cc2U, 0x3de44d02bdd4d2f2U, 0xbd04d8703d511104U, 0xbdb92d923c937890U,
  0x3d84ad34bd213496U, 0xbdc0f6be3d65240cU, 0xbdc9fa163da16260U, 0x3dcecfb2bd9cf4d0U,
  0xbdc0c29a3cdcc3b8U, 0x3ddf5e823d9e6472U, 0xba8586803d418330U, 0xbd82718fbd939e86U,
  0xbcce96643dae838cU, 0xbd82c5c73cf78690U, 0xbc4f72b0bd54bb3cU, 0x3d6fa0003c9f0bb8U,
  0xbd8696753d3caf4cU, 0xbdd55f0f3de8f5f8U, 0x3d933e74bd3cb39eU, 0x3dafeac2bd2cd040U,
  0x3d56bcac3da41240U, 0xbdf6ac5ebda9c4fcU, 0xbe05b67cbdf2f279U, 0x3cddfff0bdb93e3fU,
  0xbce611f4bd7af6a2U, 0x3b9f84403cad1980U, 0x3c4f4130be028d42U, 0xbd97d1b63dc8458cU,
  0x3df6b1763cca7630U, 0x3dee8ecabc2c51d8U, 0xbdd5b84ebdbbbe30U, 0x3da9b09c3c995710U,
  0xbd85f753bb6308c0U, 0x3df9652a3d014d28U, 0xbdc8cf0ebd5e72f2U, 0xbc571cd03df53152U,
  0xbcb193483cbd6988U, 0xbd793b0abddc170cU, 0x3b8404e03d95c612U, 0x3d9ba8a83dc01842U,
  0xbde8f472bdc9f6f2U, 0x3d09dbccbd6bf602U, 0xbdb0eb0e3dd7c48eU, 0xbd09bfbe3df1bfdaU,
  0xbdd678833d594a20U, 0x3da69384bd2fd648U, 0xbdc72fd8bdcb30deU, 0x3cc7cd88bd120e62U,
  0x3d282750bd15f07aU, 0xbdff82dabdca884bU, 0x3d991546bda25d20U, 0xbe025e9d3d54e414U,
  0xbceb8e503ce6bd38U, 0xbdcfc6d3bdeded10U, 0x3cd9cca8bcc47854U, 0x3dcea4ae3dd0cb0cU,
  0x3dc1d63a3d6aef44U, 0x3c3de7e03d6a3160U, 0xbdc173b83d7d7fecU, 0x3db338683d715f48U,
  0x3dbfadaabde0bc29U, 0xbd16b94abd0e43caU, 0xbd7b393e3dc6f648U, 0xbd4777ac3dfa6c8eU,
  0xbd3a0f323d97a414U, 0xbc77f8983def49a2U, 0xbcdc8d98bda8993cU, 0xbe03266e3d5a08c8U,
  0xbdfbe12ebdf360ddU, 0x3c7ecaf0be05cec3U, 0xbda9648ebddcc192U, 0x3d24db2cbc9a6fa8U,
  0x3dd9ebfc3d28c894U, 0xbcaa33c8bdbadc76U, 0xbdeaf83bbd49f6c8U, 0xbc7a57983de059a2U,
  0x3dbaee403df08d2eU, 0x3ccdb048be000e27U, 0xbdd61ec6b8e95000U, 0x3d80212ebce197a8U,
  0x3d0075743dc08e7eU, 0xbd798e9c3db21356U, 0x3c449a103dec3f32U, 0xbd8ac959bda02f75U,
  0x3dcb0cdc3cb48940U, 0xbd8b235d3d014accU, 0x3dd0b694bdcecd5aU, 0x3de22b84ba168a00U,
  0xbd0edbbc3dbc70a4U, 0x3d1f46acbdd0e861U, 0x3ded5426bdf91bd8U, 0x3df9a762bd6cae32U,
  0xbd93758abd3746e6U, 0x3a0f1b003dbca69eU, 0x3d1fa1f8bcae7154U, 0x3dd8b6a03ddd1156U,
  0xbc9e27b83db3fa8aU, 0x3dae191ebc720838U, 0x3d056bccbd659c8aU, 0x3afc6e003cad6748U,
  0xbda011a83dbed286U, 0x3dcbeb98bd8eda86U, 0xbdc183163dfcac2eU, 0x3deae62ebbf2a710U,
  0x3deffe0e3c9af9b8U, 0xbd8969f73ad81f00U, 0xbcbcd7083d8db5eeU, 0xbb77e9c0bdba8c90U,
  0x3b092ec03d946a0eU, 0xbcca327cbca6d490U, 0x3d810f9ebdde6854U, 0xbdf840253da68f40U,
  0xbdf4b16c3d406188U, 0xbc4ed810bd53172cU, 0x3df50002bdaff36aU, 0xbd8d30a03cca6be8U,
  0x3d50d6ecbd23f318U, 0x3ce1e0a8bca1d9c0U, 0xbdda22b63d9c53e6U, 0xbd8f171d3dad2d08U,
  0xbc68d8903e01608fU, 0xbd890785bde7a09aU, 0x3cebcb103cae7468U, 0xbdc4d7653dcc2c30U,
  0xbd4f6cbabddfdefcU, 0x3d2da8b0bd80ec49U, 0xbc17bfd03c3b0ee0U, 0x3db4fac2bd03a8d0U,
  0xbd31994e3c932378U, 0xbcfd7c58bd0ce32aU, 0xbb8027003d519aa8U, 0x3d8f147e3cbf1880U,
  0xbdece6663cc1c958U, 0xbc9bcc40bd90aaecU, 0xba79c0003d8d5916U, 0xbe050f773d815780U,
  0xbce2ae783ddf7b94U, 0x3c8cdb703dea468aU, 0xbe04f8093ddd337aU, 0xbd39e440bd948097U,
  0x3dd558a0bdce9b0fU, 0x3c6f76f0bddd968bU, 0xbd1417843c62c240U, 0xbc28a6483e00ae63U,
  0xbd3508043d7ed29cU, 0x3da642603d84f930U, 0xbd06a7bebdf6faa2U, 0xbd8c8d5fbdc47266U,
  0x3daf39363d00f1b4U, 0x3d79f2943df9f4c6U, 0xbd4a1c8e3c8bb120U, 0xbda7d1aebdc5cad8U,
  0xbd0c15603c105900U, 0xbc546e58bd74570cU, 0x3d2d835cbda22b5fU, 0x3de47d703d8d5374U,
  0xbd78c6583dc0e9faU, 0xbdbc4cef3d863862U, 0xbd05bfe4bdb7752aU, 0x3dfe07ee3de900acU,
  0xbd27e7ae3df69e4eU, 0xbd023a24bd8923a7U, 0xbc7b2200bc033538U, 0xbd8d7f7abccadaccU,
  0x3d238bdc3df91b12U, 0x3ce8e108bb824d40U, 0xbd821c0bbc2e7438U, 0x3dc66476bba05a80U,
  0x3c835dc0bd58d5e2U, 0x3e03974fbd67b898U, 0x3d6d7bdc3c9557e8U, 0x3ded0a4a3cf4cbe8U,
  0x3cac89783dbffae6U, 0x3d05bdc43d1cef58U, 0xbc72f5583cef3e00U, 0xbd550c92bdb16e04U,
  0xbddb361cbde7a067U, 0x3df0384ebcac7b38U, 0xbd2d1470be017a17U, 0xbc2d47d8bd5ab0ceU,
  0xbda52b65bdda9596U, 0xbce5d414bd530126U, 0xbdbbb9b8bd960504U, 0xbda4d272bdb3de4cU,
  0x3c1fe690bdf8c41bU, 0xbd71d7f03bfdc6c0U, 0x3df840cebc214be0U, 0xbd73fcbc3dd6b1d8U,
  0x3dfbd6a63e002c4dU, 0xbddc16da3c20c2f0U, 0xbbb210a0bd84077aU, 0x3de8210abd81927cU,
  0xbd20a51e3d0bba1cU, 0x3c8d36903d61a878U, 0xbde59a6dbd81dd50U, 0x3d6ba3e0bda802e5U,
  0x3cdf0d80bcc5fa90U, 0xbdc15cd2bd77b12aU, 0x3dd68fd63dc8ebeeU, 0x3dc2ad1ebd6ca38eU,
  0xbda7e4c43deb1bccU, 0x3da207c6be0536fbU, 0x3ddb4710bccb2614U, 0x3c1155903cd3d6d8U,
  0x3c14cd40bdc911e2U, 0xbdc706963ceffc28U, 0xbdc6ef96bd97facaU, 0x3dd040003d3e8eccU,
  0xb951fc00bd70fe78U, 0x3c99d6f83d2213b8U, 0xbc6db9883da931a0U, 0xbd8b96f53dad73c8U,
  0x3d8b0046bdc4e9b6U, 0xbe0338793e02eae3U, 0x3b9deb673e487b53U, 0x3deb55823de75c62U,
  0xbd441f97bcd73fe9U, 0xbc5158353de4cafdU, 0x3dcb615abd48ba7cU, 0xbc58b740bd8bef50U,
  0x3d7457303e1d095eU, 0xbb0192bd3dbe33f7U, 0x3d4655f0bb52e753U, 0x3cf18ac13dcc3352U,
  0x3e4118413dc6615bU, 0x3d57528f3d96db11U, 0xbd95cbbabd37ce0aU, 0xbd091effbde4cb9dU,
  0x3d817bd6bd06f0a3U, 0xbe021ded3e0e578eU, 0x3e2e9d5bbbafad48U, 0xbd3f5ccf3caa3598U,
  0x3d3f77833e1ee183U, 0xbccf0e783e09e751U, 0x3e02bd9ebc410f74U, 0x3d67ca90bc06dd3dU,
  0x3e36f746bd064121U, 0x3d8595d9bbc40ebeU, 0xbbfcf3d5bc10d90eU, 0xbc7ebd5fbcddb787U,
  0xbc0d25113d3b0d9fU, 0xbdb7c5be3d8725c6U, 0xbb86c7653d22f085U, 0xbd529464bd721839U,
  0x3db57dc33e23fcadU, 0x3bebd940bde98a2aU, 0xbdebc1c63da90559U, 0x3cf95e233dec17a3U,
  0x3e1565dbbb283ab8U, 0x3c249c3dbdc30e80U, 0xbd8497b43dc6a0faU, 0x3e4c2034bcf2b037U,
  0x3afef6d0bd595eeaU, 0xbd50438e3dda5b05U, 0x3e40d8393d9db2efU, 0x3cb74050bcbb6374U,
  0x3c2e051f3ddef324U, 0x3e4130733d8d88e2U, 0xbdcb6d8cbb91b9c3U, 0x3d9c55e03e1c5443U,
  0x3d8508b13d2b46a5U, 0xbdc6ea8b3ca815beU, 0xbe1f86b13d2b19ecU, 0x3e0163b33dca2a51U,
  0x3d3c8dae3d74412fU, 0x3db301733e27f977U, 0x3d7319443d3a7342U, 0x3d3546123d1236e6U,
  0xbd89b30bbd5e7be4U, 0xbd649bdebd9325a2U, 0x3e05b8ef3ce2f47aU, 0x3cd42dee3e2a96d7U,
  0x3e1b37423be372cbU, 0xbda59d593d8b394aU, 0xbd6f0b653e0af24bU, 0x3dd56f213d228053U,
  0x3ce47acb3b6d7740U, 0xbd4314f33d8b0eb2U, 0x3dc86eb7bde22905U, 0x3e0d6dc3bd952f2cU,
  0xbd9ca9d8bd563970U, 0x3d4249c13d8543d6U, 0x3dabdbd2be08fdf5U, 0xbe2b26f83ba94ac3U,
  0x3d2929963d2487bcU, 0x3dac3d69bad40995U, 0xbdb0b9ba3e464baeU, 0x3dd4426abdf107deU,
  0xbdf75dc13d15e140U, 0xbe052f733e2c169cU, 0x3bb54a25bd7e94d3U, 0xbd9e313fbdee7376U,
  0x3db1bd3a3da9e18fU, 0x3dfb564ebc37fe86U, 0xbd4929cebcf906a2U, 0x3db2e0b9bc2c6ff9U,
  0x3e45ca3c3d208689U, 0x3e0c15c7bbcf31e1U, 0x3cac661b3e17cea6U, 0x3d1ebf38bcabb841U,
  0x3cfc0b973cb798b6U, 0xbdeec8fe3d3e6f96U, 0xbd55a6453de9341aU, 0x3d276d1dbdaf0283U,
  0xbdd8b7a83ca64b64U, 0x3e3a501dbbb2651fU, 0xbd8f5382bdcbf03bU, 0xbcfe41353d9e9ea4U,
  0x3e3a797cbdf7bb1fU, 0xbdb76858bc830c08U, 0x3dad18073df15a7cU, 0x3cfb263b3de06f84U,
  0x3c0c4345bdc7ea1bU, 0x3d9cb31a3dd15c51U, 0x3d6450f4bc86b225U, 0x3d034f68bd6fc057U,
  0x3caadf2f3d268b58U, 0xbc9499cabc97e2bdU, 0x3d2bcf803d8e9807U, 0xbe1a09f53c231051U,
  0x3bdb299dbdbf75ffU, 0x3da3ac9cbd8eac97U, 0x3d80693f3dcc0312U, 0x3da6058fbdcd031bU,
  0xbdd6a77bbc8a1ad5U, 0x3c94e599bc002a79U, 0xbd53704e3d5688c3U, 0x3d47a1f03d67aad1U,
  0xbdb1b1a33d460967U, 0x3d13644a3d3fa088U, 0xbd1c8cd0be0fc0dfU, 0xbdfc62943e0dfadcU,
  0x3df7fcbb3d7a4624U, 0x3b304182bd72d2afU, 0x3cf1a7703ccae723U, 0x3d9d2020bc99690aU,
  0xbde59a5a3c52f716U, 0xbe274c4d3dd1aad5U, 0x3d804bdbbd240df4U, 0xbd819ffa3cffbe7bU,
  0x3d7f288b3da0f4c4U, 0x3dd7feb53db1e01eU, 0xbb37f254bd453148U, 0x3d2a9f653cd1970cU,
  0x3db8a05a398f76ddU, 0xbda4f03bba291bcbU, 0xbd1a74323e368b27U, 0x3e339ac0bde5e97aU,
  0x3e0fdcd6bdab78acU, 0x3d75ea073e3fd236U, 0x3e0c057d3d0c60a6U, 0x3c07f976bdabb3b4U,
  0xbd985188bc5e3b98U, 0x3e18049f3dcfffbdU, 0x3b6c1ce9bdb4b503U, 0x3d241c4e3e335f9dU,
  0x3c83c7023dc0d193U, 0x3b06dbcebc1e2104U, 0xbe02054e3d40a96aU, 0x3d9a81e93dc369d3U,
  0x3dccdb2ebd882884U, 0xbd57c8803dc00728U, 0x3d58c6e73dcbf8a3U, 0x3dab7ae73d0b4c41U,
  0x3ca216a43d1b933cU, 0xbd8d44983de37bd5U, 0xbd1ad8fc3d40bc0bU, 0xbd144817bbf36c84U,
  0x3d5bf7f03e00cff0U, 0x3d12530ebd3796b2U, 0x3da19475bd7ce170U, 0xbe13b1213e043d80U,
  0x3e133eb5bdda3e23U, 0xbd81eb2bbd3267d7U, 0xbddf2389bdc26db9U, 0xbdb7bd18bd65b6b4U,
  0x3d8ae0073dde046cU, 0xbe0764b4bbc47006U, 0xbdbe06edbd43480bU, 0x3d9a81e7bccd970cU,
  0x3d019a0c3e251160U, 0x3e2760c73d81332cU, 0xbddf8455bb5231b8U, 0xbd2f91f83d618e9bU,
  0xbc55c4a6be0064a3U, 0xbbce8ecbbce1062aU, 0x3c7d0683bd22dfb0U, 0x3d7c61b63d3e5971U,
  0xbdc86b3cbd59efbdU, 0xbd1f8842bd321689U, 0xbb4614fd3c9e72f2U, 0x3cadabc43c63a516U,
  0xbd811c2f3d16210fU, 0x3de57ec3bdbdee54U, 0xbd3cc0a2bdd0f5aeU, 0x3b9356e2bda3d299U,
  0xbc47f33a3dcca92cU, 0xbdbf3215be109087U, 0x3d2123973c614176U, 0xbd5b979dbdbffbbfU,
  0x3d571f45bdde6f65U, 0x3de2e191bd196bd6U, 0x3d0d51efbb80dfadU, 0xbb0226163db7ab00U,
  0xbe0467e03e01e1e7U, 0xbc8c42b8bd23ad09U, 0xba94e6583cf0cd25U, 0xbd3cffbbbc6b3c1dU,
  0xbd3a4efabd11d17fU, 0xbb4c4e5ebb6bd6daU, 0x3d889e163e1a4d2eU, 0x3dd8435cbdd1769bU,
  0xbc281f5cbe11a12fU, 0x3db4fbd5bd617aa8U, 0x3d53f7ecbdaa57c1U, 0xbd2b0f09bd9213acU,
  0xbd4bdf843e05e5dfU, 0x3db7fdebbd323630U, 0x3c62677a3bfc22edU, 0xbdb313eb3e024f9eU,
  0x3e05e4f2bc19fc71U, 0x3da8bbf0bdace1c7U, 0x3c3fcc983d3b2252U, 0x3d22d0ca3ccf9f95U,
  0xbd5355903dd45ab1U, 0x3cd411ae3e116592U, 0x3dd2b3dc3cc40277U, 0xbd339640bdacbc51U,
  0x3d422cee3de6f339U, 0xbcfc58b23ce992a2U, 0xbb372368be02644fU, 0xbcb456813d9f244bU,
  0x3b248e64bda2ef68U, 0x3c9e2f443d16017dU, 0xbd08a8b9bd877adaU, 0x3c56e5c9bde69171U,
  0x3dd3db8bbe0fcbecU, 0xbd3cdba43e0e2e5aU, 0x3d9ff2883df34a67U, 0x3d6ce6a9bcf9794dU,
  0xbd1917953e056cd9U, 0xbaf4844a3e02a96aU, 0x3ca4e7cf3cebca61U, 0xbd38a1bc3d97a7e9U,
  0x3e1b5449bd911f44U, 0xbdf72f533dabe38eU, 0xbba9ed54bd1b12efU, 0xbda7f54dbd5ad961U,
  0xbda1f35dbddb86e1U, 0x3d5e3eca3d3e88e6U, 0xbb7503053d5b0b70U, 0x3be94996bc924e6fU,
  0xbdfe95cc3d541dddU, 0x3d24b240bd1dba7fU, 0x3da109b8bd1e430fU, 0xbd1acdab3e1bd7d8U,
  0x3d84cc793dee58d2U, 0x3da25619bde7bf65U, 0x3d495c8f3d92b195U, 0xbc1fe9203dd41711U,
  0xbdd74ea9bdedc359U, 0x3da459453e1ae52cU, 0xbd495b5d3dd52357U, 0x3dd6eed4bdc3d587U,
  0x3d04903c3df5a8a3U, 0x3ce2fc99bd7a5e98U, 0x3dadb524bca0f773U, 0xbce990b23d64ba7cU,
  0x3e2294d9bde13e5eU, 0x3df94e14bdfabaedU, 0x3d03fe663db52947U, 0x3dfaea99bd80f30fU,
  0x3dc7b0cfbda7abd7U, 0x3cd9e83f3dba83c6U, 0xbb355bc23aab70feU, 0x3d753e83be142505U,
  0x3da3c928bd9a4b81U, 0xbccebb3fbdbc130aU, 0x3db07e68bde0b3fdU, 0xbe0b15393de4ff85U,
  0xbbb274da3da5ce8dU, 0x3d840bf4bdf1d017U, 0x3cd2b3bc3e10957bU, 0x3dcf10683c672a86U,
  0x3da311efbe01d70bU, 0x3dbd1e883d237adfU, 0x3d9811393cf193edU, 0x3df80ea03bb83cffU,
  0x3da1c7febc2ce49dU, 0xbba00a2ebddb4312U, 0xbdc854393d5f5837U, 0xbd1906b23e09c145U,
  0x3e18d8c93d7135aeU, 0x3dda2da2bd683af7U, 0xbc4ed2493d2476dbU, 0x3d9384ff3df0210eU,
  0xbd0fb8cbbd8265efU, 0x3dab6e9bbda39f82U, 0x3d6e4ae13def7c05U, 0xbd3fb687bc863875U,
  0x3c99dd7c3b220a40U, 0x3b92b9613d2711ccU, 0xbd0b18f3bd33ed84U, 0xbe11b7723df23b1fU,
  0x3daf1d033cee9d4dU, 0xbdc296edbdcf23d5U, 0x3db453df3d086fe9U, 0x3d4c7a1ebd81b0ddU,
  0x3d99c820bd795aa0U, 0xbca6d37dbdb95526U, 0x3e18d0113d3c93c4U, 0xbd43aa173d89bbe0U,
  0xbdd4a8bebd07d477U, 0x3dd50f3d3cbf3d5bU, 0x3af60e19bdf412baU, 0x3d481b653bb82995U,
  0xbba624b9bde12759U, 0xbdf69a143d7a4074U, 0x3d81c8c9bd4ed19bU, 0xbd3c12b73d107de8U,
  0xbd4577dfbda7cf1bU, 0x3de359993d284c46U, 0x3ce7901bbdcd1596U, 0xbcce26f33dcc0c7aU,
  0xbc8178f13c5373d3U, 0xbd84cfccbd961acaU, 0x3caafb6abcc22871U, 0x3b56b6e3bcb21f17U,
  0x3e2a3334bdc20e1fU, 0x3d9cdb87bd259122U, 0x3c963165bd589e91U, 0x3e16b5133d9392ceU,
  0xbd9521823c8cb1b3U, 0x3dc3a4133e1ef5cfU, 0x3e0f69713db00b8cU, 0xbdee36d0bda07724U,
  0xbde56dab3d018c7dU, 0x3e0cbed23dcbd0a2U, 0xbd788cea3b168e12U, 0x3b5e65ecbcf334d8U,
  0x3cd4614e3d1beb1aU, 0xbdc7b8693d46bb49U, 0xbd9a4d673d9fbc9eU, 0x3d21e83a3d828ad9U,
  0x3dc067e43d8eb36fU, 0x3de5ab9b3e051520U, 0x3d14eb5fbd38b524U, 0xbd4229853dccda74U,
  0xbdc2e99a3da7367eU, 0x3e2cfa02bd258ab2U, 0xbd21441a3da5ed0fU, 0xbdbe96b73d8a1e54U,
  0x3dc855e9bdf1c92aU, 0xbd38028cbdd43717U, 0xbde887e33cf62dd7U, 0x3e00716aba788333U,
  0x3da8cd5bbdaa7d1fU, 0xbd0a7f303da2802cU, 0xbd1aeddfbd969f8dU, 0xbd99961ebceaa16aU,
  0xbd3dd9db3dc85b91U, 0xbd8aa4f7bcc832bdU, 0x3db7a549bc45b28eU, 0xbb225401bd2d36c1U,
  0x3d8b5c5ebdb8d0cfU, 0xbe00f3a3bdcfad50U, 0x3d47b7d4bd0d488bU, 0x3e2c86c0bdca6e36U,
  0xbe0545ce3ce6eb96U, 0x3dfdd459bd7af182U, 0x3dd795f8bda7f243U, 0x3d0040153d743ddcU,
  0x3d26bf603e1009f6U, 0x3dfdf05e3daff9aeU, 0x3dfca8823da49b24U, 0x3da1e35ebd8e7028U,
  0x3e294ea7bdc67abbU, 0xbcd4adb3bddb8fe3U, 0xbdf756453e20eddcU, 0x3d0d735a3cb72ed2U,
  0xbdc058113c84b235U, 0xbd63fd643cd05207U, 0x3dcc4d313dbced67U, 0x3dfc0deebde109deU,
  0xbd2743e03e21ca71U, 0xbd9b3852be07858cU, 0xbbed8606bdf6df79U, 0xbd4a73f13d8ab615U,
  0x3b9cd6ba3d714df1U, 0x3d162df9bd27739fU, 0xbd05215d3dbdec4cU, 0xbd3ac349bc8b74faU,
  0x3c4252aa3d92cc12U, 0xbde285413dea610dU, 0x3d4a2404bd96ed87U, 0x3d41ca24bd086a15U,
  0xbdd6279b3d84fc98U, 0xbd867c0c3d22aaefU, 0x3da26e0fbcaa732bU, 0x3d4f6f6e3da2fb0cU,
  0x3d0c5a713d82e753U, 0x3dfc0a543d339f29U, 0xbd18b3c03dac9ff6U, 0x3def34ce3db99c67U,
  0xbd4041333d749377U, 0x3da29f583df6723cU, 0x3da58a01bc851ea2U, 0x3ad324b73df112dcU,
  0x3dda09fe3d2493d5U, 0x3d4dc2d5bdac5c7aU, 0x3c3805d0bd67f260U, 0x3d1607bd3dd6df70U,
  0x3da28c5dbdbde90cU, 0x3caaf8f4bd9a939bU, 0xbdd43514bda19f8dU, 0x3cb03591bd46a3f3U,
  0x3d25c7b03dcda9ddU, 0xbdcc5f143d254dabU, 0xbd8ff7883df29325U, 0xbdd684453d8fb2b5U,
  0xbdb45f3d3c87434eU, 0x3dc7f5b83dcdd0d8U, 0x3c3082be3c13a3c7U, 0x3db4974c3d6087fdU,
  0x3caab6c6bd67ec87U, 0x3db052293c4b4b78U, 0x3d888b853d8d0dd7U, 0x3c95ea5e3d926d01U,
  0xbdb4a3a7be01380cU, 0x3dcef54dbda51695U, 0xbc8ee3e8bcaf8c52U, 0xbd0c0f8ebcc28c04U,
  0x3ce273463d3ef223U, 0xbd0a12d8bced26afU, 0x3d33ed873dd5883cU, 0x3de27e3f3e22aadbU,
  0x3da176d0bd963d8bU, 0x3df288e3bdbb17acU, 0x3e063b42bd7a9a9dU, 0x3e28dae6bdce2228U,
  0xbd7e9efa3d95c746U, 0xbcaf67183d8de37bU, 0x3e259e8fbc8c86abU, 0x3df68f0bbd088732U,
  0x3de334763e2a4b62U, 0xbcb718283c9b163cU, 0x3b97ac653dda345bU, 0xbd0d5ec9bce21dddU,
  0x3da15fa5bd0b77aaU, 0x3cfbb48e3dfe5479U, 0x3d25af1b3d5b4efeU, 0x3d1eab953df4e579U,
  0x3db467f0bd6d4e66U, 0x3d82c86a3dde5505U, 0xbb9d7834be0bf01cU, 0x3da139c9bc209f1eU,
  0x3ceac760bd8be2b5U, 0x3df9c0803cbf6089U, 0xbd6880083d13161eU, 0x3e01d9d43dbbc040U,
  0x3cdb04fdbdaef974U, 0x3ddd1ed5bc7aff29U, 0xbc3b93683dd0403eU, 0x3ca12ad1ba1665faU,
  0x3e001709bd2f2aa2U, 0xbd4cd076bc9dc8ecU, 0xbdf268683cc46060U, 0xbd4b53063ddc7d74U,
  0x3da82cec3df9c4aaU, 0xbe0026df3dc946e0U, 0x3dbc0362bd1c1ba0U, 0x3d8b0ed23bfc2f60U,
  0xbb935d203cbc1c40U, 0x3d053544bd078358U, 0x3cfcd538bd8bd3a9U, 0xbd941c09bca5c380U,
  0xba86ba80bdb7ea23U, 0xbde97864bd48c91eU, 0x3d6116a8bd5cf5c6U, 0x3d5e27683db88bfcU,
  0x3dc73510bdb1f82eU, 0xbd7e9dac3ddac1baU, 0x3b9992e0bd18a1fcU, 0x3dea2bb83d9e07eeU,
  0xbdc3be13bd59ea82U, 0x3da464903c90a530U, 0xbd99c83db9a39000U, 0x3e05e0793d504ba4U,
  0xbc2f3818bdc795c6U, 0x3d440e683d800620U, 0x3cbcc000bd810a27U, 0x3b57e3003da5fde6U,
  0x3de3790c3d9d4f5eU, 0x3c9346a0bcddec6cU, 0x392d10003e00442dU, 0x3b9ea880bd18402eU,
  0x3d3440f0bdf9aa5dU, 0x3dec190c3d5d8904U, 0x3df41edabb171780U, 0xbd152d8cbdb5eb64U,
  0xbdc89014bcc61e0cU, 0xbd35f0e0bd930754U, 0xbdaaf8cabd11ca3cU, 0xbd9a594b3d8f1430U,
  0x3dfc45b63d35421cU, 0x3de6fcd2bd3122e0U, 0x3cd7b238bd37dd80U, 0x3de03bc03d21d368U,
  0xbcc2db0cbdab9bfaU, 0x3da8c2f8bdbcad1aU, 0xbdd89f803d5305bcU, 0xbd37dddcbd25ff14U,
  0x3db32a2e3c94b978U, 0x3dd5e1623de6015aU, 0xbde6a74abdbbc5faU, 0x3c90ad483dd868a8U,
  0xbb076740bc87e2a8U, 0xbdb320acbdee2775U, 0xbce81880bdd0d1d3U, 0x3d4cbaec3cb922a0U,
  0x3d01e89c3e0183f1U, 0x3cf26f203dbe0d42U, 0x3c290e203c4e1b20U, 0x3b985a60bd849717U,
  0x3dd6522ebd26acfcU, 0xbd9858523df2325eU, 0x3ca65c28bde73dd0U, 0xbdcc1eea3ce7e238U,
  0xbd6ecd22bd1d53d6U, 0xbdef15363a370400U, 0x3dfe9bc23dc099d0U, 0x3db9e42a3c089980U,
  0x3ced4e48bd11c016U, 0xbdce08343d4ee36cU, 0x3c4ae2003e01a31fU, 0x3d30bca03dac84fcU,
  0xbd55f502bd6f27deU, 0x3cad60d03cad4908U, 0x3e03d067bd884a42U, 0xbddfd06c3dfc82e2U,
  0xbd836f94bdfa1be1U, 0xbe00bb94bcd18470U, 0x3d262ee8bdae7458U, 0xbd5585d0bdb6b378U,
  0xbd1556c23de562e8U, 0xb90d5800bc9e8f04U, 0xbd8e4ac0bd783b02U, 0x3d405ad4bcdd363cU,
  0xbcd94114bd989eaeU, 0x3c696830bd7da87aU, 0xbd531044bd3a0c94U, 0x3dc5927a3cd03170U,
  0x3da25210bd81e669U, 0xbdb4bdae3dd078d8U, 0x3adb5c803b668400U, 0xbdcfbac83df3b5e4U,
  0xbd4fd7703dbda19aU, 0xbd5940cabdf2931fU, 0x3d9d11aebdc5365aU, 0xbd6cdeb43da3f76eU,
  0xbc8337b83db4ed06U, 0xbde5c09cbdec69eaU, 0x3d9c49b43dd2fbd4U, 0xbd4b2284bc11d1c8U,
  0xbdde92b7bd17d7ccU, 0xbd487cb83d9051acU, 0xbdd363eebdc2a63eU, 0xbca931883cf384c8U,
  0x3cacf1603dfe0c32U, 0x3d399428bd8ec92aU, 0x3e0119ab3d9fca54U, 0x3df7480abd209a04U,
  0x3dbcd7043d384790U, 0x3df90c923d03d5a8U, 0x3de987a6bdaadde6U, 0x3e05fcbb3d47c0bcU,
  0x3d48bbfc3d029894U, 0x3ce516c0bd75c8dcU, 0xbdb478563ddfa166U, 0x3d9f6afebcdcb858U,
  0xbcb131d03c8bcd00U, 0xbdbb741cbdca59a6U, 0xbdf98ba5bdc26bc4U, 0x3dc9d682bcef9aa0U,
  0xbdc86b67bcdc1804U, 0xbd043b9e3b9a9060U, 0xbd20f8f2bdb93839U, 0x3ccae1c03db92eb2U,
  0x3dce21fa3d59f1f8U, 0x3d8a9990bbab2560U, 0xbd3962443da3fe74U, 0xbdd6a3eabe03afcdU,
  0xbe0434f7bdb8a9caU, 0x3d079118bc139ba8U, 0xbe05bdd5bd40be76U, 0x3d0e693c3dd9eea2U,
  0xbbf41280bdc2d9c4U, 0x3dae96703df33b5eU, 0x3d333330bd56e1feU, 0x3d7354d8bdad59a2U,
  0x3c9fc8203cdad578U, 0x3dd7e36cbd3d5118U, 0x3c7dbc303d92c26eU, 0xbd265952bd0335a8U,
  0xbc48f678bcd9235cU, 0xbbbee280bd8d267eU, 0xbdd1d6f8bd31d96eU, 0xbc082a98bd4bf71cU,
  0x3d88def23dd83ad4U, 0xbde9c554bc66fa88U, 0xbd2d52babda05a28U, 0xbdf3fc43bdc40960U,
  0xbdfc35513d62ebf8U, 0x3d4892d8bd7e3f56U, 0x3d9868023d1cdd6dU, 0xbd77556abe0493bbU,
  0x3dc458d8bd69e12cU, 0xbe0364f83dc91227U, 0xbdca16943c89fc5aU, 0xbd02c90d3d84f6dbU,
  0xbde3ddc3bd526ed8U, 0xbd08ebe7bdf89a10U, 0xbdefc4f13c508651U, 0x3c69a05abe05f522U,
  0x3cd88a9f3d224710U, 0x3ceae0773df62ce5U, 0xbc2dd2743deacc8eU, 0x3df6025fbdf96b6aU,
  0x3e0081883dfcb0a6U, 0x3d82aed63d379cbdU, 0x3ac4714dbd77ff56U, 0xbd43ae903d3c7ed7U,
  0xbdc4e0903de7153eU, 0x3d96c102bdbcb0deU, 0x3dc646fabd7296ecU, 0x3d9b107a3cfa9dd9U,
  0x3d7873c33dfb57ecU, 0x3b29ad0e3d97799bU, 0xbddba6463d728594U, 0xbd48b7d63be82befU,
  0xbdc89ed13d92b6cbU, 0xbd4397613db268d6U, 0x3d8827e3bdd3caa9U, 0xbdf2a8e7bd8fcb74U,
  0xbce2bc3bbd9a1430U, 0xbc9203233db2b8baU, 0xbd3c37a33a06c6ceU, 0x3dc6a670bdae332dU,
  0xbd72ad243d0eb864U, 0x3df044d43d9e84daU, 0xbcee6e503be3610cU, 0xbcf70e60bb72d976U,
  0xbdbfbf4a3ca3102fU, 0x3df63266bd59a730U, 0xbdc60feabc0dee11U, 0x3e00aaf2bca9b9a2U,
  0xbd116208bcc701c2U, 0xbdd1631d3d9b18c8U, 0xbc71717ebdaa0ad6U, 0xbdffd3bb3caee80cU,
  0xbdc40680bd9e29b5U, 0xbd91c35bbdf5663eU, 0xbd58846d3d32465aU, 0x3d009356bdad6c3aU,
  0x3dbaa0a73dab435dU, 0x3dfbdf11bdb9aad3U, 0x3d6ae25a3dcd74cdU, 0x3dcc0bdebda228c6U,
  0xbe059e35bd4e0fe2U, 0x3d8b09a73d026e84U, 0x3dfc43303df4448fU, 0xbd0088efbc016095U,
  0x3beca7703cdadaf2U, 0xbd978d68bdf1d09aU, 0x3cfde53b3c8bd691U, 0x3d3109f03dc30646U,
  0xbda3ac973dc91d7cU, 0xbd91dc823d475c6cU, 0xbdeaa32d3c723cb0U, 0xbc8e23403dd54524U,
  0xbd8bb292bd86fdb9U, 0x3cd5f06fbd65228eU, 0xbd77fd573df0a1fbU, 0xbc8a4d733d910211U,
  0xbb9189d9bdf4e21aU, 0x3da4bc78bd310ad8U, 0x3d7c44d4bd9b7786U, 0x3daa66f13da684a7U,
  0x3d9d8403bda1fc23U, 0x3dc0c6f63d361eb1U, 0xbd657058bd989087U, 0xbe046533bcc73a5cU,
  0xbe0698d73d01a6a1U, 0xbdf2bb793d2fc3ddU, 0x3d8800bfbd74f15cU, 0xbd2306fe3da1b1edU,
  0xbdc0f246bd3c1fd8U, 0xbdb9fd173c4b33eeU, 0x3cccf883bd0332e8U, 0x3dddc3713df601beU,
  0xbd8fceed3de95ce3U, 0x3d9742743d667339U, 0x3d1e539cbd1401a2U, 0xbd6df3c4bdc5b3b6U,
  0xbe037dc83dcba0cbU, 0x3d186bbdbdb4a43fU, 0xbca9c12e3d395adbU, 0x3dc6f6563c9ab3f1U,
  0x3df0a0eabd9ceca7U, 0xbd24d1e9bdb97600U, 0xbbd7169ebc55abedU, 0xbd813efdbdac4576U,
  0x3d0bdfa53808c9e0U, 0xbddee8b9bdc3d2bbU, 0x3dd470bcba807cffU, 0xbdf9feff3b34931dU,
  0x3d38d82fbdae5194U, 0x3dbf2ff93dadf73bU, 0xbd9f17dfbc811d0dU, 0x3d345478be0acacaU,
  0x3d1d0afabd9dc216U, 0xbd26dee13db7e137U, 0xbdd44c983dba2829U, 0xbdff09a6bdd77453U,
  0xbcd9fa463d773351U, 0x3d706cb2bd84ab00U, 0xbd1cf7103defba32U, 0xbd4e82293d939463U,
  0xbbb1b5b03c7f2408U, 0xbb0ccae13dcfe935U, 0xbc9a21343dac3ca1U, 0x3d39380a3c9b7b24U,
  0xbce149b93df351d6U, 0xbceafee83da092d7U, 0xbd1cbf30bd51393fU, 0x3cb3645e3dc7f1c3U,
  0xbdc7bfadbadbee3cU, 0xbe09d3b93ddaf178U, 0x3cdcd1203db31861U, 0x3b503bcbbde61702U,
  0x3ddf8d463db0032dU, 0xbdfc496bbd06eed3U, 0x3d85e6b83dda877eU, 0xbdb75bb33d4d2cf8U,
  0xbc84caf63d6d80f2U, 0xbda5e51a3db4dadaU, 0xbcd5cd653dfedbbcU, 0x3d315a10bdb03e3dU,
  0xbcd21471bdf8a54aU, 0xbd00a74bbd92e343U, 0xbdd94ccc3df6530cU, 0x3df830cebd6edaa2U,
  0x3ddabb0fbc963089U, 0xbdf2e20d3dc3ed44U, 0xbdb56c07bd1d8c79U, 0xbd8ca3f8bdab858eU,
  0x3d9bdcb9be06ed62U, 0x3dac4ecfbd2cfd5aU, 0x3dd59d913d880571U, 0x3d2c300fbddbafafU,
  0x3db5c1a73d8e918cU, 0x3d297b873db4a1d5U, 0xbd2ac60d3a23942cU, 0xbc2c3d8cbd8ff1f2U,
  0x3d6ae315bc64b6e5U, 0xbbaf235bbd35e558U, 0xbe004b3dbdde20c6U, 0x3d28ccdd3d713a55U,
  0xbdd620503ddbd176U, 0x3dd3c1e03db31387U, 0xbcd738c63e01ef6aU, 0x3dda875a3cbf154fU,
  0xbe02dee8bb21cf6cU, 0x3cd3b76b3b23de4bU, 0xbbb4d67a3babe3fdU, 0xbd909334bde67479U,
  0x3bb2b9ea3cf81261U, 0x3dc590c6bcd3e831U, 0x3db63e783ba8734bU, 0xbc15e8333dd9377aU,
  0x3d905c603d616f34U, 0x3d68859c3cde016bU, 0x3d20ff39be00868dU, 0xbda90bd13cf2e56fU,
  0xbdadc7623d300a6dU, 0x3de8e3e3bdcf3c23U, 0x3d9c958ebdb1c5d2U, 0xbde7aae8bd939774U,
  0xbdf9233a3d98cc46U, 0x3df04f24bdbf2697U, 0xbdcb0a1c3d35767dU, 0x3d65427dbc00f6ddU,
  0x3c0365433dbe1544U, 0x3df0bcdcbdbbe307U, 0x3de42eff3d1e7c8dU, 0xbd39650d3dde78dcU,
  0x3d21c5a0bdccf04fU, 0x3d8fadd5bd67404dU, 0xbdd071613ccb8137U, 0x3d53531bbd1a2b47U,
  0x3d71fec1bc4ac76dU, 0xbdd1b6023cb47677U, 0xbdbe95363d80690bU, 0xbda7c0993de05284U,
  0x3d8a2a26bdae9441U, 0xbd62573a3d007a21U, 0xbdb4d8ffbcf7566fU, 0xbde7129fbdccf240U,
  0xbde5826a3cc10543U, 0x3d55a6253e0157d0U, 0x3c9e59d93d2f5188U, 0x3a9e4a7abca45882U,
  0xbccab9e1bddd178fU, 0xbdcbe038bd533bd4U, 0xbd2930b4bd2deb8fU, 0x3cb35a333c305ed3U,
  0x3d7a9e513ca1feefU, 0x3d8ac47a3daec50bU, 0xbcaeddd2bda420daU, 0x3d2c8f953d184cc0U,
  0xbc8463043d2e3f61U, 0xbd657101bcc2a46fU, 0x3cc5c912bd754efeU, 0xbd1c2da0bc448cd3U,
  0x3e01e0413d0c2821U, 0xbdbe46c4bd068ac4U, 0xbddbee14bc87890dU, 0xbdd6d9303dce039aU,
  0x3df8853c3dd11e08U, 0xbd59ed743deeacfbU, 0xbcb476eabd9784deU, 0x3dc1b82e3b02b07bU,
  0x3d08d340bdd43901U, 0xbd061b17bddb013fU, 0x3dd15ece3cffe5c7U, 0xbd887b033d6fb0b9U,
  0xbc0549fa3d501171U, 0xbd3aba07bddecdd0U, 0x3ddc9b86bceac709U, 0xbdfdf5373dc33868U,
  0xbd6a9ec53d9063ccU, 0xbda1992a3d96ae0bU, 0xbdf9dbd3bd8640ccU, 0x3cca1c393d19f9c7U,
  0x3d767d84bd8b1ed5U, 0xbe0527b03d07afb1U, 0x3d6620853b93ea7dU, 0xbcf0bdbc3e02c5bbU,
  0x3d65a1cebcb02e9fU, 0xbe01bdd2bded0f2eU, 0x3d87c534bcac853eU, 0x3d99d62fbd891882U,
  0xbda2a6903dc3d666U, 0x3cadf73fbdb5b385U, 0xbc10414b3d81b7eeU, 0x3c9835ca3c8bdde7U,
  0xbde5d7e53c05dbd6U, 0xbe086bacbd97b390U, 0xbdecda5ebd9eedbeU, 0x3da946763dc5232fU,
  0x3daec2f73b908d45U, 0xbd2a0c67bdf30bf0U, 0x3de39402bcf55995U, 0xbdfb4fc83d880500U,
  0xbe00e18cbdc40996U, 0x3d6685683dbc9a3bU, 0x3de6a2b9bdf717faU, 0x3d924afc3ca9982fU,
  0x3da8e038bd5f83e1U, 0xbdccd7ecbe05f7edU, 0xbd0ee963bc830045U, 0xbdd3d7ac3dfeb0d7U,
  0xbde3d6cc3dd7ada0U, 0x3df44114bc3d765aU, 0x3cb41c4fbc93874dU, 0xbdb970193d211975U,
  0xbc546e353d4588dcU, 0x3c30809e3dbc522fU, 0xbdd85885bc059a5dU, 0x3c0c97533dcf4f78U,
  0x3b98adbe3da8504bU, 0x3d95ecb93ce972a2U, 0x3dcb16383c25a4aeU, 0x3dfda46cbd0fb771U,
  0xbe076442bdeb33e3U, 0xbd9e3a14bdf0d986U, 0x3d1ad4b4bc2b8fb3U, 0xbdbb8b5fbd57c9a3U,
  0x3df755e43d7b08dfU, 0xbc2a59babd850fdcU, 0x3ddce60dbdc7b5e6U, 0x3d6e72a9bdbb642fU,
  0x3dbdc7703d85b281U, 0xbda42af73d8af1d6U, 0x3c4bfb83bd3b092aU, 0x3d9244e2bde7a779U,
  0x3e003163bd09540bU, 0xbd8de515bddd4c56U, 0xbd8611003d150e41U, 0x3d45ae993ca170f2U,
  0xbde85c9ebdb30adfU, 0xbd3adfaa3ba71aaaU, 0xbe022cdabbd1285aU, 0x3d821f1abd7ff564U,
  0x3dad6c8ebde06d10U, 0xbdb06d37bdfb9667U, 0x3df5b6d83d6951ccU, 0xbd2b524bbc99a6aeU,
  0xbdf3f243bc3c9f85U, 0x3daf5b2cbd556556U, 0x3da43de43d5bb0f9U, 0x3d92c7073d1c53c5U,
  0x3df5b6acbd7bc700U, 0xbd4704be3d732cf9U, 0x3dbbecd0be01619dU, 0xbc44baa03c192ae0U,
  0xbd5333b8bd4b94faU, 0xbd1da52cbe048f18U, 0xbdd1dff8bd953269U, 0x3d3bff283e00c8adU,
  0x3db15f74bc704af0U, 0x3ce4c5d8bbc9dcd0U, 0x3c388060bda98706U, 0xbd79bdd6bdd47e88U,
  0xbd6dee5a3b170c80U, 0xbbec8d10bd9d8ec0U, 0x3e0009273dab15d6U, 0x3e044dd93d5915d8U,
  0x3d958552bd99e8fcU, 0x3d4081f03db36476U, 0xbde86ba03d2d22ccU, 0xbdf8baa53901fc00U,
  0x3cac32783cb87b90U, 0x3d9ee036bdea6a6fU, 0xbd735674bded57fbU, 0x3def7db6bd7789f4U,
  0x3dd116283df3711eU, 0xbcf9d0783da2d18aU, 0x3da6e1f63d180500U, 0x3ab98680be009b43U,
  0x3dfb3bee3d620708U, 0x3c3770d0bd78ee50U, 0xbd1a606e3df11a2cU, 0x3dd16e34bdd223c6U,
  0xbddd80b23dce0ca0U, 0x3b857be0bddb9458U, 0x3d877a68bda3c267U, 0xbb974940bde6478cU,
  0xbc909e2cbbe4a9d0U, 0x3ddd6230bdf56ebbU, 0xbda6abe03d4c8fc8U, 0xbbf8adf0bdf9a630U,
  0xbd63c2aa3de4fc14U, 0xbdfe04853cf32c78U, 0xbddfe7123d79a490U, 0xbdd2ce0c3d0c01acU,
  0x3d613f4cbdecf6b3U, 0xbcd4aa503d7d78c8U, 0xbc0b2d20bdf57abeU, 0xbd981374bd416a56U,
  0x3d2947f43def7bbaU, 0x3d9b3dfa3de0f0aaU, 0x3ddabb86bd23817aU, 0x3c5a21b03d55d4bcU,
  0xbdb22986bdb110cbU, 0xbd2c54b0bda68a78U, 0x3d67c9d83d886f98U, 0xbdafe9e03bf312a0U,
  0x3da1d99abdd2a3fdU, 0xbd6a2c4ebcfbb8e8U, 0xbdb7c344bd07e582U, 0x3dc80486bd396e60U,
  0x3db6e048bd54ce5aU, 0xbdae2ee23d15e86cU, 0x3cf343083ba84480U, 0x3e02e71139bcee00U,
  0x3aa5f7803db4aefcU, 0x3ce48f80bdf653f9U, 0xbdec04043b32c600U, 0xbd9cc686bd064b1aU,
  0xbd5e27e4bd65b1c0U, 0xbcaf78f83d82d400U, 0x3d75f504bdbb804aU, 0x3d652e5c3df119faU,
  0xbd118fa4bdbdf660U, 0x3dec37503d9f6c10U, 0xbd8f4c423da90644U, 0xbd7a9e423a097600U,
  0xbcf8ed80bb0fb800U, 0xbd283b8abcef7ef0U, 0x3d7f5820bdf13049U, 0x3caab548bd5d70a0U,
  0xbd207c1a3d0076b0U, 0xbc9b5e98bdb1e600U, 0x3d908bf4bd8815e7U, 0x3d64cb703de62702U,
  0x3de497a03da194acU, 0xbca270543d01cc38U, 0xbd475af0bda6b76eU, 0xbd8603d03d63ffe0U,
  0xbd84c077bd1c3718U, 0x3dc767ea3d9e50e4U, 0xbdb0fc903ddc4380U, 0xbd5900d4bc5ba628U,
  0xbc8d84883dcccef0U, 0x3dd3598abb96ff00U, 0xbdd30b3a3e00dd3dU, 0xbd9e0521bd749358U,
  0x3dffbd1e3d7695a4U, 0xbd5117b2bdae5fa4U, 0xbd9fd94e3d90b3aeU, 0x3d8f22783d474c98U,
  0xbdf5b2683dcb80bcU, 0x3d96d552bd23fd5eU, 0x3cd484483d8f542aU, 0xbcfd43b8be01c800U,
  0xbdd35b9aba53eb00U, 0xbdc50ef6bdad6971U, 0xbdce4ffcbda3d4d4U, 0x3daaaa92bd2adc6cU,
  0xbd94cd1ebdf428a6U, 0x3e00ebe93dba1f0aU, 0x3e045dd33d87e416U, 0x3ddcf88a3ca4a828U,
  0x3d766fe43d811f12U, 0x3cd9b8f03d5ced24U, 0x3c860958bd128556U, 0xbbdc3720bdc8c801U,
  0x3d6e03003d6d0e4cU, 0xbde853e03d916488U, 0xbd8542763dc025f6U, 0x3d6842643d2983a0U,
  0xbc1458783d00949cU, 0x3dfc45d2bd04ac6aU, 0xbdb76e683dee9e14U, 0xbdfc1951bdbdefb3U,
  0x3bbc2e203df48ab6U, 0x3b8b5b003ddc3878U, 0xbc2f97f0bdae9a6aU, 0xbd88c7653dbedeccU,
  0xbd84e8053dc7b49cU, 0xbdf48c883d8aaa78U, 0xbd8435903de82accU, 0xbdd9745cbdbf97daU,
  0x3dd0d742bd592c0aU, 0x3d8eb3763df6cbfeU, 0x3d712b48bdc260deU, 0xbd7a228e3c1c5c90U,
  0xbdfa8946bd6e9930U, 0x3db374b83d7d2d34U, 0xbd7771783d837528U, 0xbbc1b3e0bdf87c85U,
  0xbdd48a50bd4a8b18U, 0x3bc92d60bda39cdcU, 0xbde043693d9ef2fcU, 0xbd40710c3d77a6dcU,
  0x3dfc56ea3de4abd2U, 0xbddb2bd0bde55fdeU, 0x3d4d37343dd4011eU, 0x3dea87fabdd6f336U,
  0xbd114126bdb81099U, 0xbd42e4563df06dfcU, 0xbd5c9d76be03f00cU, 0xbd0a8c8cbd6b4100U,
  0x3df71f3a3cd60298U, 0x3cfec980bd95ef26U, 0x3af467003db94388U, 0xbd83ade3bddb4f54U,
  0xbda773a8bd0a610cU, 0x3d7c08a43de315ceU, 0x3c891b30bc53d678U, 0xbd66c1da3d91386cU,
  0x3c94a510bd19934aU, 0xbd90a0f83db59276U, 0xbdf7e0a13ad4b780U, 0xbde199063d9d0514U,
  0x3e052aa73ccf5a48U, 0xbdb0df733d9f37e6U, 0x3d8fa1103ce5ff68U, 0xbdb28400bdb4f090U,
  0xbd8f8878bd6fabc8U, 0xbaf66a80bd8c47f2U, 0x3b1146803d7c4994U, 0x3c68ff703d3f8b18U,
  0x3dea6024bcdd3098U, 0x3d1d5464bdf0bf29U, 0x3cf079883e055b39U, 0xbdff63db3daaeb38U,
  0xbdfae00c3d8d206cU, 0x3bc856a0be043c63U, 0xbda3cc7c3cc10048U, 0x3de8eb9cbe00b9e2U,
  0xbddb09a4bdfcf768U, 0xbdd45d463d91e320U, 0x3c9453f03de8fb38U, 0x3da8ee6c3ddea774U,
  0xbdfd27de3d89e1faU, 0x3da31c5abd0bbe14U, 0xbddeca0dbd2a7184U, 0xbe04b3543dd98948U,
  0x3dc32dda3d0fe48cU, 0xbdd3c1303d4b0770U, 0xbdd2d590bd5f4b1eU, 0xbd92b982bd9c2082U,
  0xbdc53d2dbd6410bcU, 0x3d297c183de1a08eU, 0xbd64183abdddf374U, 0xbd8f5d9f3da30a5cU,
  0xbd6c7f18be005fb7U, 0xbd8c89433d46ac24U, 0xbdccf41e3dd38d70U, 0x3cabad403d84c23cU,
  0xbdbce154bcfd48a0U, 0x3dfdc352bd3f25d4U, 0xbd8daf383ce33e08U, 0xbd96d6633c18f1d0U,
  0x3d301ed83d50ba2cU, 0x3cc97760bd99a266U, 0xbdbfd452bca18918U, 0x3d90ffc4bdce03acU,
  0xbd86bc003ca6f2b0U, 0xbcee27703da28b00U, 0xbce390e8bd6e63a2U, 0xbcd8edc0bcd7d6dcU,
  0x3da33dfcbc28a798U, 0xbd94f46e3d426dc8U, 0xbd74e11cbde0ff54U, 0xbd1de07cbb3247c0U,
  0x3d03b9883db60388U, 0x3d4a3484bda32a42U, 0xbca5c6303de1a29aU, 0xbda390423de2ef08U,
  0x3d0279e03cfb28b0U, 0xbdcd2ee4bde364b9U, 0x3ce3e870bdea12a9U, 0x3d05abccbde72892U,
  0xbdb017cc3de3e312U, 0xbccd7f94bd56346aU, 0x3d9743703c359280U, 0xbc9763a0bc2401d0U,
  0x3b6e68803d94c0d0U, 0x3d3049803c9788d0U, 0xbda42e703d2bbf6cU, 0x3d833060bde073f8U,
  0x3e03ba5d3c9bded8U, 0xbabf94803c5ae6a0U, 0xbdb839babd5a83f6U, 0xbd4ba8f2bc0c85e0U,
  0x3cd35d08bdfdd5a1U, 0xbddffb663d3168acU, 0xbd851b1abb3adcc0U, 0x3cc248683d5acdf8U,
  0xbd0fec56bd25b3dcU, 0xbdbf798ebe02781fU, 0xbd2b2ed83dbb3366U, 0x3b5f7180bcb00810U,
  0x3db0a7d6bc8d469cU, 0x3d0155dcbdbfbfdeU, 0x3d9087e23dadd212U, 0xbd9d3a6a3bf74020U,
  0x3d199a243deed8a8U, 0x3b26e140bde7e6aaU, 0x3d93c6e2bdfbd8f6U, 0xbc864980bbfc6650U,
  0xbb0841003bde2ea0U, 0xbccd7a683d295f58U, 0xbdb48f9c3de2cd1eU, 0xbd3176b63d0a005cU,
  0x3d2a01043da9ff22U, 0xbde5f862bdac21d2U, 0x3deaa0debd9c0c08U, 0x3db4aeac3e010665U,
  0x3d1d954c3dccbd36U, 0x3d9adcc4bb2c5b40U, 0xbd908a5ebcdf6618U, 0xbdfe6cf43db958aaU,
  0xbdd452793d336160U, 0xbde00ea5be058432U, 0xbc8ba47cbdfa75a6U, 0xbd8c3b1d3d96184aU,
  0xbdbe11483de0afecU, 0xbd9f8768bcbe9a04U, 0xbdcd0ebb3d83dc34U, 0x3d90ed0e3d9f269eU,
  0x3db9ebd83d021770U, 0xbda958483dcbe432U, 0x3e01cdf3bd3a71eaU, 0x3decbae6bdd0ef6aU,
  0xbdd0223fbd18629eU, 0xbd86a98e3d7e4d30U, 0xbd9c51503db6b4e0U, 0x3dcb0f4c3df26aaeU,
  0x3e014e65bd2e71b2U, 0xbddc66823d2ddcf4U, 0x3d87a49ebd8e7edcU, 0x3da987aa3d983676U,
  0x3dec2ffabdea787eU, 0x3d585f4cbcedd2ecU, 0xbde1bd573cf61200U, 0x3ab30e803ce02020U,
  0x3b9597a03dee7078U, 0x3d70f6d83d2d5c9cU, 0xbdf41c81bcc1f3e0U, 0xbcc9cba43d16e934U,
  0xbd9391623dcac48aU, 0xbd9956b8bdad603aU, 0xbc4147a8be04b55eU, 0x3d0ac8283db945f0U,
  0xbc0c5890bd66cdeeU, 0xbd4de570bdab91b2U, 0xbd065f903b360d00U, 0xbd9f3a3ebd2f1dbcU,
  0xbdaafcccbd80f5d3U, 0xbd2c7b50be04c7a4U, 0x3e1377c83b8a5620U, 0xbd18eb933d05b0d9U,
  0x3e3e0db53db12409U, 0x3e1dca183d01dc5fU, 0xbdd604b53db2d851U, 0xbd594dfabd5a6bbbU,
  0x3d354b703d02130dU, 0x3e166a023dc7ac91U, 0x3e1f46b8bd68c312U, 0xbd3072553d9fca54U,
  0xbd9b74163e12a482U, 0x3d1334403e24c7d2U, 0xbd9668cc3c2d8306U, 0x3e136e213db4aba7U,
  0x3ca4e7313e08d28eU, 0x3e01fce6bd7277a3U, 0xbdcce2633e0f6b0fU, 0xbccaa903bd9a60f2U,
  0x3d2820ddbd77ed00U, 0x3cfab7513e22518fU, 0x3d86944ebd08d124U, 0xbc7b9ce23dbce6a9U,
  0xbdb5966a3e115b38U, 0xbd58aa4e3e0f7444U, 0xbccdf15a3ddd5c5fU, 0x3dafc5f63de43498U,
  0x3e3f1c6dbdbb554cU, 0x3d9b681b3d0929ecU, 0x3dd37976bcef58e0U, 0x3bf6e6a0bdbbcb53U,
  0x3da7ed6b3df7b194U, 0xbdcd0fce3d802d0dU, 0x3e4437abbc33d3eaU, 0xbcc58f703d015dafU,
  0x3a74b7123e319e9fU, 0x3da6fdc83dde7dd1U, 0x3e13e4d3bdcfe967U, 0x3d914ba0bce5878aU,
  0x3d1597b8bd560178U, 0x3d421fefbc8bd968U, 0xbd4aa78a3c94605eU, 0x3cfad84e3d86c063U,
  0xbd85d77c3d734694U, 0xbcbf45ac3dee9d2eU, 0x3dcf5bbb3dbc36dbU, 0x3c23bca63dc2afffU,
  0xbd734bcb3e36a35cU, 0x3d2f9edb3e02bcd1U, 0x3df07c2c3e04ab79U, 0x3d22c0583d1a3457U,
  0x3e147c05bd5c3d40U, 0xbd4b51c0bd236bacU, 0x3df1e5a73de32efeU, 0x3cd973c53da71f1cU,
  0xbd416b23bcf14105U, 0xbd9e76b93d375964U, 0x3e1d130d3e0d69bbU, 0xbdb22c043dc800baU,
  0x3c947bef3e0c4157U, 0xbb897237bafbc20dU, 0x3df44a76bc397172U, 0xbda2070fbd27a153U,
  0xbd1135713e238eb9U, 0x3dcfb318bc098c8aU, 0x3d7165f6bcb66122U, 0x3e2c78d23c25e415U,
  0x3d9e5f9ebb9d7970U, 0x3d699ba53d64b369U, 0xbd59b1783e1aa333U, 0x3d159754bdaa9257U,
  0xbd4318e5bbb2de38U, 0x3c527b353d89724bU, 0x3da1c4db3e0b4815U, 0x3d7af3813ddc7db3U,
  0x3d81141abc43c204U, 0xbd733a69bb5a9d39U, 0x3d4051403d4ce4abU, 0x3d6892363c4426dbU,
  0xbd579b553d7ce887U, 0x3dc52971bd7a3fb6U, 0x3d6e8d26bd9e5ac4U, 0x3d036fa33d260580U,
  0xbd2df7c8bbb4e86cU, 0x3e350479bc1744ddU, 0x3dfdf34cbd0307c3U, 0xbdb79e51bd25cfdcU,
  0x3e2b5b163d19d429U, 0xbcc7f3e43e0ab8e0U, 0x3ced13243c214d22U, 0x3dee39b73e1d7584U,
  0xbd82533bbd2bcf91U, 0x3daf2c573cc69c1fU, 0x3c35f7c93e256514U, 0x3dfd491f3e023eadU,
  0x3d73a3043e3b8309U, 0x3db6166c3e088cc9U, 0x3df91d523d080d33U, 0xbc5ae941bd86392cU,
  0x3e0342d03dfdf04fU, 0x3d963f023bf9324eU, 0x3e032956bcfbdbc4U, 0x3de850adbd88a393U,
  0xbc96c6d63c77d634U, 0x3dfab9d4bc30847dU, 0xbd86177dbd604d77U, 0x3e1083e1bd735f83U,
  0x3dfa398f3db7d518U, 0x3d5a25a8bda35a53U, 0x3dd5e372bc126918U, 0x3ddf4a983d0c992aU,
  0x3caa4d643ccf714aU, 0x3e27348dbd8fd193U, 0x3b5fd3acbd2cccf5U, 0xbd01c8ab3d0b38f5U,
  0xbd8ab67b3d27bd0eU, 0x3cf26f77bd2bdcffU, 0x3ca399e1bd97bcfcU, 0x3e1fd5c8bda2bc48U,
  0x3d92628c3c82ca5bU, 0xbd1a928cbba0fa09U, 0x3d762020bcb3ba5bU, 0x3d87a2323bbcb6c6U,
  0x3d2144d73e17f19bU, 0xbd9730713d92ca5aU, 0x3d89466d3dc52a93U, 0x3d5879f53e03c35eU,
  0xbd99049c3dde2578U, 0x3d96dfdfbcfb1041U, 0x3e229c633d9e9af6U, 0x3d0d47cfbdbf16a0U,
  0x3d90b5dd3da63506U, 0x3dc39fc63e0fbae7U, 0xbca8a631bc88e54dU, 0x3d76819a3decdca6U,
  0xbce8156b3c221f13U, 0xbd293e58bd75a23bU, 0xbd9d52d33e45267dU, 0x3d8055b23db1cd2bU,
  0x3bb2f2613d0f92c5U, 0x3d86ac80bd39ada4U, 0x3e458937bd96f85bU, 0x3db056393cf599b6U,
  0xbbbe7e933c888fbdU, 0x3e2c42903d1f5077U, 0xbdc56effbd4bc749U, 0x3df687d5bce44536U,
  0x3cd19cee3e117903U, 0x3d4a259ebcb8ac96U, 0xbd31a37f3da7ced5U, 0x3e1d24ec3e07638cU,
  0x3dce009fbca1f597U, 0xbccd2896bcf21227U, 0x3cd1973ebb170d12U, 0x3d8ae0abbd00babdU,
  0x3e2eb912bdc4f373U, 0x3bfda595bdabb856U, 0x3df74ea0bb6d2ea6U, 0x3d71a5fabd0d7ce2U,
  0xbcfd504bbdb5a114U, 0xbd2a586f3ddef226U, 0x3dc2c3d6bb960307U, 0x3b88202a3dcd8fadU,
  0xbd39885b3d63f3d3U, 0x3d4b97513dbfeba4U, 0xbd2a9df5bd9d827aU, 0x3dd482863dd16fb0U,
  0x3d7cb8fbbd0ba074U, 0x3d2b0bddbd969082U, 0x3cf3ffb0bbd1ba48U, 0xbdb326c8bd5c249aU,
  0xba4baec83c1a8c8aU, 0xbc1d22863dbd6d18U, 0xbd53759fbdde8d97U, 0xbd8b99d5bcd9688bU,
  0x3da6b5f03c57f100U, 0xb9f4f860be08825fU, 0xbd5ba2813d0c7947U, 0x3d3f4b933b856e87U,
  0xbd1d67f83d76e46dU, 0xbcae871ebdacb54eU, 0x3a1dba6c3d3e2f21U, 0x3ddfb4dfbe046193U,
  0xbd8a7fb03bf5a165U, 0xbdf5c387bd4a96a2U, 0x3c5a5335bd0c06cdU, 0x3d0b0db3bb880be0U,
  0xbd9a3e1e3defa45aU, 0x3da77ccfbd044e3cU, 0x3d3390713e053f67U, 0xbdca12c83d9fc38cU,
  0x3e0e0c6cbd8c378bU, 0x3dc868b73db76be9U, 0x3d5d35183e1760f2U, 0x3e084c693dd12a23U,
  0xbdbbc596bb8e1e9cU, 0x3cf6cd5abd1e53b5U, 0xbd826370bdc1a3bfU, 0xbd0fdc1d3cef433aU,
  0xbc592592bda7e2efU, 0x3d91d2e5be08ad34U, 0x3d80545a3c9081e6U, 0x3dc1793a3c832093U,
  0xbd8d7316bdbe7d74U, 0xbdfe2824bd6b3574U, 0x3def70c9bd826326U, 0x3d9a2faabd77f36aU,
  0xbcdfa566bce930ebU, 0xbdd1b730bc77704cU, 0xbc8a859b3dd11476U, 0x3cb14d6dbde76615U,
  0x3dd1a2e83dfc7d34U, 0x3e16fae9bd1c08f6U, 0x3cc775e13b81d612U, 0x3d9e48523ddc15eeU,
  0x3d740529be1f0f3cU, 0xbb6680e13cf3f996U, 0x3ca52c473d1d7bbaU, 0x3df02cf13dc7e487U,
  0xbcfbdebdbd34b637U, 0xbd1e11043e16de0aU, 0xbc8dfe903cfa4ec1U, 0xbdfa3c7c3deeb012U,
  0x3cc98abbbd813985U, 0x3e2a71653cab4d70U, 0xbd373a13be018123U, 0x3cb3682c3da83623U,
  0x3dbc6302be01a088U, 0xbdc244283d391c02U, 0xbd0b6d4cbcb23af6U, 0x3d27607dbe0525c7U,
  0xbd4782063b0a586aU, 0x3d80a6743e2ecc76U, 0x3c04938cbdcf41b8U, 0xbd8dd0863c698ff2U,
  0x3e00dced3e216286U, 0x3dd3f654bd8b2559U, 0xbdfa3660bdff8bb6U, 0xbdc24cf53d112c0fU,
  0x3e10f965bd2dd723U, 0x3cbe0105bd7762e1U, 0x3d2d35a6bd8a90a6U, 0x3df94d643c895877U,
  0xbe06a346bdfa722fU, 0xbda8c1493c0ae9f8U, 0xbc1120aabceaa79aU, 0x3db7ce853e03b3cdU,
  0x3dcb3b0c3cc69b84U, 0x3df996d83caa4929U, 0x3bd997893dfe5a31U, 0xbdbabe33bc42cfaaU,
  0x3e14bb77bd634635U, 0xbded668c3a31b915U, 0x3e084463bd21df1aU, 0xbc107fd4bdfbdeaaU,
  0xbddb23253d950300U, 0x3d7d50eebb83edfeU, 0xbd10b424bdfb3fe2U, 0xbd7cc283bd5b704aU,
  0xbdfed7e53de1f52aU, 0x3d71a14bbe1d5b96U, 0x3ba8bef3bda32a18U, 0xbd95cd61bd1c2609U,
  0x3e2e4967bd8f1091U, 0x3c1c0821bc976df3U, 0x3d3fb1903e27d4c6U, 0x3b014b51bd4f283bU,
  0x3db4f654be0097fbU, 0x3cd090953e19cefaU, 0x3d0b7e2b3c7a2ed3U, 0xbd5d87a63a82d7f2U,
  0x3d8b9fd43dff37b6U, 0xbd8c24c23cb25042U, 0x3d8d1474bbbd552cU, 0xbbd2521c3e202e0eU,
  0x3d1ff1b2bd773a45U, 0xbcafd7d03ca2503bU, 0x3d7f840a3e1a9037U, 0x3d6e3cd23c7566e3U,
  0xbdd9ff4a3ddd759eU, 0xbccdd5e33e17528eU, 0x3a9bf605bd9df8a1U, 0xbd89e15e3db0501bU,
  0x3dfb77d03dc2b322U, 0xbd2239ec3d71df2cU, 0xbc36daf43d1db9a9U, 0x3dbd6d513dac5a2eU,
  0x3d4a4ab13d0b066eU, 0x3db375b6bdebf05eU, 0x3cc335b3bd699c6fU, 0xbc68482e3d89cbbcU,
  0xbe0d62aa3dbc7d52U, 0xbd1507863e1a888bU, 0xbccb9551bd5f9c7fU, 0x3c0b81bbbdd983c4U,
  0xbc546d503daa548bU, 0xbda3efb83ce8ff39U, 0x3c6131183ca291bfU, 0xba61c9b13e08534aU,
  0x3dfb9e823ca2df50U, 0xbdda50953d9942cfU, 0xbb6766853d45332eU, 0xbbdeecef3deb98fdU,
  0x3e1a8ffabce4ae01U, 0x3dbc649cbe0a699fU, 0x3d5457273e083094U, 0x3d4bab62bda118d1U,
  0xbdb0120a3d4fb356U, 0xbe0b1555bd266675U, 0x3e11c2c4bd8d376fU, 0x3b8b5a8cbd7f4590U,
  0xbda4fc353d342e0eU, 0x3e016ed03bd709f9U, 0xbbd6b327bddc3d24U, 0x3d804e193d9898dcU,
  0x3e024ec33dfa53fdU, 0xbdda2673bd22b12fU, 0x3cc6a3e93daee962U, 0x3e3196f5bd04976cU,
  0xbd91a39fbcc31bc1U, 0x3bcd6f61bd52a132U, 0x3cc8a4ddbdce10baU, 0xbcecacbdbd755a59U,
  0x3dd385c5bcf195d1U, 0x3dc0e1bc3d86e74fU, 0xbdf16429be144d62U, 0xbdaad6c5b93b117cU,
  0x3de3efb03dd82c15U, 0x3d37e7c6be113240U, 0xbe0052523d659ad6U, 0x3e3a17443d803ed5U,
  0xbc4b93f0bdd74f6aU, 0xbd71c5603daae688U, 0xbcb47302bd53eac7U, 0xbdfc0535bdac4d62U,
  0xbd8ceb9abc4d999fU, 0xbd663bb13c21e5e1U, 0xb9ff711d3d386b1eU, 0x3d1c5c313d1192e4U,
  0x3dfeeafa3d09d4a4U, 0xbd8ecca73de5ddbdU, 0x3da9ace23d92b7feU, 0x3e02a808bd3748b1U,
  0x3cf20314bd7d3825U, 0xbdf49cb73de62dd3U, 0x3cabae11bcae4a59U, 0xbb248d8e3dbcd7ceU,
  0xbdc5397b3e1a4108U, 0x3df8a5bcbdb859d9U, 0xbde8549bbd675ea7U, 0x3d1c2ac0bba04474U,
  0x3e1acd5a3dc7e66cU, 0xbde2488cbd6615bdU, 0x3c4444fb3dea3701U, 0xbc9567adbda9758dU,
  0xbb8b8385bc2e5bd4U, 0x3c648e99bd5ced01U, 0x3ca13154bcaf4a16U, 0xbd75d110bd9c1c47U,
  0xbd600c753d9eca16U, 0x3e374303bdd43a73U, 0x3e04d4dfbdf1eccaU, 0x3d43c7dcbc6792e2U,
  0xbc4115b1bdc47b5aU, 0xbd85cb03be0f415dU, 0x3dd721863e18d506U, 0x3d26fdb43dfe31f0U,
  0x3b6cc1b03c9c5dcbU, 0xbd388c4b3e2f07fbU, 0x3e1836c23de5cd63U, 0x3c95171ebb05205bU,
  0x3d54dca33d36ec9cU, 0xbce69517bdec4bc1U, 0xbc0ea5d3bdb0b19bU, 0xbdf3a8bd3da929a7U,
  0x3cb4c2c83d67d4f1U, 0x3e0a134d3ddd13bbU, 0xbd22acc73cc0c532U, 0x3e241f9e3d88c859U,
  0xbdba7cedbdd5b3d7U, 0x3ca813ed3e29c9a5U, 0x3d5d1a623dbf69d6U, 0xbc96d2473d5b6031U,
  0x3bcb0d973c465665U, 0xbd6758643d67b733U, 0x3dbfdfdcbd0c8057U, 0x3d21c3cebd64e10eU,
  0xbd4401833d9cd523U, 0xbd9c8ba93d6d3dd4U, 0x3de7d7e43c03f95cU, 0x3e049d803cfeb3fcU,
  0x3dad8179bd266412U, 0xbdcabbba3e1be4e4U, 0x3e36c6373c32352dU, 0x3e0a23f9bdac81d1U,
  0x3b8756e83e0ae852U, 0x3e3ea4d6bdff83acU, 0xbd1e2ccabcf22c0eU, 0xbd7434923e234f64U,
  0x3df004243dec6299U, 0x3a35ef6abd70a10dU, 0xbdd940bb3dd202b2U, 0xbd6f625b3bdc02bfU,
  0xbd1ecd1abd787de5U, 0xbce175dd3d98a501U, 0x3d0446bfbd2f940bU, 0x3d8353a9bd15a98bU,
  0xbe0e585e3e34863cU, 0x3e1be449bda4ae50U, 0xba88a9d53cf8f7c6U, 0xbe12c9d23dcb7c42U,
  0xbd094f49bdc3947aU, 0x3ac31f733db5e455U, 0xbc84ab893d7dd08aU, 0x3cafe6e53dcba731U,
  0xbdb0b0763cd8f6cfU, 0x3ce600753dbd13a8U, 0x3d2eab523c3f94a1U, 0xbd7e87653dc15d99U,
  0xbe1452383e002703U, 0x3da906f1bdabb7faU, 0x3d1514f9be11dd33U, 0x3dd0c6563cbd5b60U,
  0x3e17e48a3ddcaf12U, 0xbdf1831cbde29b4dU, 0xbd8eaf613b9d73d2U, 0x392bb3ecbca15138U,
  0xbdf921823d6c6ec1U, 0x3dcbcb99bc93992fU, 0xbd72f222bd937654U, 0xbdab4dfabd9381efU,
  0xbd354657bc0412b8U, 0xbd2fb061bdcee4b2U, 0x3dae61c3bd28a925U, 0x3da9e2233e31e324U,
  0xbcc441e23db1eb02U, 0x3d38d44fbdab2f62U, 0x3d697f3f3d172c95U, 0x3e3686733e096d0aU,
  0x3de77f2bbd957388U, 0xbd81e2533d5cb0e4U, 0x3e02a6a13d27c465U, 0x3ba2fb273b91f22dU,
  0xbd17dadc3dc51effU, 0x3cdd7dd33da19dccU, 0x3da22f69bdf82fabU, 0x3d1c7ecbbd4f287eU,
  0xbd8493ba3d41f707U, 0x3d64310cbc7f6cbbU, 0x3d91e7633dadd315U, 0x3dd913ea3df6fb0aU,
  0xbc252a203aacf380U, 0x3d540ae0bd3ed7b2U, 0x3d2c860c3e029d01U, 0x3c2473103b922820U,
  0xbc8b6a38bd9a0346U, 0xbdb51c3e3d1db904U, 0x3d620aa4bd9592f0U, 0xbdb3853ebe027403U,
  0xbd622b4e3d312bb0U, 0x3852b0003d84f27eU, 0xbdf01c0ebdfa7e78U, 0xbd4715503d945b08U,
  0xbe02a9d5bdc10fc0U, 0x3dcd3e183d89a198U, 0x3c3e1250bd511c04U, 0xbc8c4da43c15ce20U,
  0x3d0f74343de44b18U, 0x3daa7108bdb2ba49U, 0xbd9ebbc3bda8602eU, 0xbda03c89bd79fcdaU,
  0x3cd93ae0bcc696a4U, 0x3c5b4eb03c9522a0U, 0x3d2d4eacbca38da0U, 0x3dd732903dbcc8a6U,
  0xbe02260fbceadcb4U, 0x3d51cb903d8e5e24U, 0x3dee71623dd54a8eU, 0x3cd82fb03d0ed728U,
  0x3d6bc9b0bc110bd0U, 0xbd2847c03dd29a2aU, 0x3df4a6523dab69d0U, 0xbe01d04fbdb6742eU,
  0xbc32af48bd99ed32U, 0x3d6f47f03d3ec76cU, 0xbd8a2187bddeea9aU, 0xbb2214803df6b74aU,
  0xbd73bac0bded2f2eU, 0x3dda0d743ddaaa24U, 0x3bddb2003d4ab298U, 0x3d889cfabde33739U,
  0x3d871362bc2083d0U, 0x3ddb567cbceffa78U, 0x3d4846403d401dc8U, 0x3d98f05e3d02c120U,
  0xbde66a603d544d7cU, 0xbb99ca60bcb1097cU, 0xbd7484403d863cb8U, 0xbd357382bdc695ebU,
  0xb90e6c003d193ce8U, 0xbda3852d3d717014U, 0xbd1e79623db778deU, 0xbd1350603df25ab6U,
  0xbda5dfffbd919a15U, 0xbce62ae43dc14730U, 0x3dee4300bdca597cU, 0xbb1049c03d201554U,
  0x3c395cf0bd0e31f4U, 0xbcb51dc83c84de50U, 0x3d79ec6c3d880c22U, 0xbc98a4ac3d18e59cU,
  0xbd39ee983bcd2800U, 0x3d16fd48bd21371aU, 0x3d45949c3debfc50U, 0xbceaac003d55ab34U,
  0x3db162b0bd79818cU, 0x3ddfba863ba4e740U, 0xbdc90194bd192a38U, 0xbd31f8da3b4c5780U,
  0xbe003653bc0570e0U, 0xbc938ef43d4bd7e4U, 0xbcdad5bcbdec0b30U, 0x3d695634bd93d700U,
  0x3df676ee3dc5eda8U, 0xbcd145203d9bb756U, 0xbde2627e3d069f98U, 0x3cf89510bd859518U,
  0xbc391e403b266300U, 0x3dd7f07abd94db9aU, 0x3dbe09f03d94f8a4U, 0xbcf45ef83d166274U,
  0x3c6398103dafcbb6U, 0x3d15abccbdf55704U, 0xbd8e3730bdcf864bU, 0x3e018d05bce5f71cU,
  0xbb029a003b509640U, 0xba551500bde30c7aU, 0xbdced100bd814306U, 0x3dec986ebdd42d88U,
  0xbddfc1ac3c78c970U, 0x3d262288ba34dd00U, 0x3d1ac0b0bd82c5bfU, 0x3de6c360bd7a155eU,
  0xbdf0916fbd7f912cU, 0xbd9a2e3cbdce7f90U, 0x3dcdd7343c86b650U, 0x3d12dc44bd7470ceU,
  0xbd9bb656bda7a0b6U, 0xbde54b47bdbdf249U, 0xbc009cc0bc06db70U, 0x3dd4654a3bd90940U,
  0x3dac473cbdf315beU, 0x3d17d7d43dcf2d4aU, 0x3cab6b003d74cf58U, 0x3d3489ecbd7f9f48U,
  0xbdf6308f3dcdf2feU, 0x3dc4da743df2f4d4U, 0xbcb596603db017c4U, 0x3cbcd1b8bd8c9194U,
  0x3d0e0a48bd144bc2U, 0x3d8c58b0bdf3e6f8U, 0x3be28b80bcfe6d20U, 0x3c70ba30bd74e6e0U,
  0x3d88a866bdc3d582U, 0xbdf4a1e83d9a60d2U, 0xba9bbf00bdac119eU, 0x3d02bc38bdbeb3e2U,
  0xbe059404bdc4e812U, 0xbd91569fbc633f00U, 0x3d01666cbdef9902U, 0x3cf70e483ca14240U,
  0x3e0593ffbde7f2c2U, 0x3d9edccebda917d8U, 0x3d9040bcbdb114b9U, 0x3d4fafec3da2b468U,
  0x3d61f10c3dfaf3a6U, 0x3d269bdcbd17cc36U, 0xbdc9b7a43dff8626U, 0xbde385d03d70de54U,
  0x3da59e02bc94ae6cU, 0x3c7ca2b03cfb5c48U, 0xbb5036003c76a770U, 0x3d92b8c6bd8444f2U,
  0x3daba4203d672c70U, 0xbccd15c8bd7bbde0U, 0x3d305698bd0a0c6eU, 0x3c38a200bdee2ff3U,
  0x3dd119863db88c22U, 0xbdf371333d3312d0U, 0xbd6f0d6c3dfb045aU, 0x3c0c9af03e04e3a9U,
  0xbcf895f83d05fbb4U, 0xbd55bee63d69c170U, 0xbd07c7863d92b280U, 0xbcd2f75cbdd863bfU,
  0xb93cf8003d9d59d6U, 0xbde9a02abde67200U, 0xbd90e942bc7b4b80U, 0xbd4836bc3c953b70U,
  0xb71f4000bdabed84U, 0x3d15a6f4be05e828U, 0x3d1ecba7bc3b9db1U, 0xbc8b9ae63dceb6d8U,
  0xbdeee936bdf1b8f3U, 0xbddc344fbcbae485U, 0xbc5e6d6a3df6e3c3U, 0xbe0807f1b9f0df74U,
  0xbc5b13423dc4611fU, 0x3dbbb44cbdb7ea93U, 0x3dcf8bc53ca58e61U, 0xbdd9fd653d78209bU,
  0xbdeb6bb7bdb81b63U, 0x3deb741abcc1d107U, 0xbbed1b58bdb9f599U, 0xbd8c6dacbd70af7dU,
  0x3dd810883d394fa5U, 0x3cae15f83d0556a1U, 0x3de1cabe3c028ae0U, 0x3cbaecfe3df1e4b2U,
  0x3d9502903df7a4adU, 0x3db8e013bc86f272U, 0x3b4a5fd23d9f2c14U, 0xbc4ef776bdc6b7aeU,
  0xbd4c6f20bd390031U, 0xbd32f496bded01f8U, 0x3da35dd7bddb180fU, 0xbdd112d0bb8ca01cU,
  0x3d8728e0bd300cf9U, 0x3cdf12febdf09d02U, 0x3db34da93d548595U, 0x3df6e0183df7da9dU,
  0xbc09f205bd820b91U, 0xbd731218bd22fc23U, 0x3d66476a3d4ecbc9U, 0x3d00d514bda5905fU,
  0x3b466a9fbd2f129dU, 0xbd0ec868bdf7fedeU, 0xbd3af31bbe0a69beU, 0x3d4d7575bdbd9cd8U,
  0x3d1c4353bdf04815U, 0x3de2904b3d95bebdU, 0x3cdb7dcf3df57692U, 0x3c90ddc93dfa0d56U,
  0xbc8b62f03dccd154U, 0xbd18f7da3ca1288fU, 0xbdedc7c9bdb18482U, 0x3d6e859c3d639779U,
  0xbd3ca0febe0a63b5U, 0x3d6a00a23d613236U, 0xbd176da8bcf6a823U, 0xbdba52e4bd91bcf2U,
  0xbce06b74bdeb37c2U, 0xbdcb6081bde8109eU, 0x3da4ac2abcccf1ffU, 0x3df9f9d3bde29f73U,
  0xbd6461f73cb82979U, 0xbd929d873b878fcfU, 0xbdcd6736bddd5afcU, 0x3be7e030bd5e4196U,
  0xbd87260cbdff8d97U, 0x3da89c1b3d2ad789U, 0x3da51e3d3bae4176U, 0x3d908bf0bdd784d3U,
  0x3d161214be096970U, 0xbd5265583dedcac9U, 0xbdf84e9b3d589678U, 0x3da876c23c2f1d91U,
  0x3dc80f203d70d50eU, 0x3b0f50303cd69402U, 0xbdabecaebc68ca1dU, 0x3dd7c2ff3daca677U,
  0x3c70f7eabbc9366fU, 0x3ce0e1243dc124d7U, 0x3d3a0b94bdf3552dU, 0x3cd4d2e8be028fe9U,
  0x3d5f3c29bd88697dU, 0x3d2800f5bd8a9454U, 0xbdd4e7ee3d20e9adU, 0x3dba461ebdcdfd74U,
  0xbd99a6a93da3f9c5U, 0xbd05eff5bd69c116U, 0xbdac326dbdb630b8U, 0x3d9f3af33ac57368U,
  0x3df3f71ebd9930dfU, 0x3c3a7b0b3c6a9f15U, 0xbbf1f2423de08c9cU, 0x3dff5717bd16ab9dU,
  0xbdac867a3df90974U, 0x3df39210bdd0a359U, 0x3dbfd83d3d9c90dbU, 0x3ce8b134bd48bdf4U,
  0xbdd5e6e8bd233673U, 0xbd8d97fb3d95744fU, 0x3dc36d52bd26cad0U, 0x3d82e9073deb4052U,
  0x3deca3c33ce0d2feU, 0xbe02a3c23d258984U, 0x3d6573d93bc6d2ceU, 0x3cead532bd8a0f69U,
  0xbd0b054e3c1df284U, 0x3d329dc73b47399cU, 0xbd2915873aaeaa94U, 0x3baf2dcebd423cc9U,
  0x3d49d285bdbb4636U, 0xbd95e3bf3d1e869dU, 0xbe0651bd3d4fd83bU, 0x3d27f64bbdd64da7U,
  0xbce2c27cbd427259U, 0xbe03cc003bd1a206U, 0xbd91d2fb3d1626a8U, 0xbcfc7be6be08e476U,
  0x3db2e58f3dd54424U, 0xbdf34212bc8613e8U, 0xbde78b723d9efa2fU, 0xbdfd10573aec3045U,
  0xbdf5dbffbda42ab4U, 0x3d79c665bcd1ca47U, 0x3dff834d3d806fe4U, 0x3d9cc70f3d0b836aU,
  0x3c7ebd7a3dc1ac6dU, 0xbdf33e68bd93c658U, 0x3dc9afc63b53cfd2U, 0xbd8eb245bdd78a3eU,
  0x3da0483e3d443a3fU, 0xbdbbae693d884a70U, 0x3d9776f93dad18a4U, 0x3da33df83dcd5c9cU,
  0x39b4fe003d2f43feU, 0xbdacbc4b3b86d93eU, 0xbc87b3463d5361b4U, 0x3b7a5a903dc8c06eU,
  0xbda9fbb2bdc22b09U, 0x3d2428c9bd8b8858U, 0x3d2c78f1bda9c50bU, 0xbcb72e1d3db30f5cU,
  0x3d6556ffbd8d5b1cU, 0xbe0981f9be0a420cU, 0x3da216bf3de23c2cU, 0xbd96b2983d95580aU,
  0x3cf720463dfd1187U, 0x3d90630f3dd4b7caU, 0x3cdb670bbb55b6ceU, 0xbddc5a62bdd2eb52U,
  0x3d9460573d626662U, 0xbc703b7bbd2a9a1eU, 0x3d9c1aa1bdff0a4bU, 0x3dcdf208bd92b4cdU,
  0xbe0770833db6ffa5U, 0x3d7815d53c6f7bf7U, 0x3df978263da8e8edU, 0x3deb61b6bca06161U,
  0x3dfb64dabd4b4646U, 0xbdfd37673cb05b7dU, 0xbd40fd69bd97983bU, 0x3d38e4d9bdffdbe0U,
  0xbd9a3237bd2d8253U, 0xbda19aec3e1241ddU, 0x3df766c0bdd5f664U, 0xbd1d741f3e15270aU,
  0xbcd9b6e3bdaf7256U, 0xbd18d3863c1b1e5dU, 0x3dc2b3093c2c24adU, 0xbd30bdd1bcf62a23U,
  0xbd7ce141bcb9fbbaU, 0xbda699c93e052e69U, 0xbd161d91bd2bbb6aU, 0x3c9f71bfbdfeac00U,
  0xbd9d5d5abb85e0e2U, 0x3c4c49fabcde8a52U, 0xbd3b70e1bb464be0U, 0xbd3d7160bd8c1dabU,
  0xbcb83b793d8255aeU, 0x3e0410dfbde48928U, 0xbd971cf23da53ab0U, 0x3d0fe4c0bdb90e28U,
  0x3e066aa4bdbb1daaU, 0xbe11de943d340bc3U, 0x3e14d95a3db20e77U, 0x3cd390b0bdc92905U,
  0xbdd51e6e3e0f48d2U, 0x3c311bd1bbb5f8dbU, 0x3dd7e1d9be055895U, 0x3d28de6ebdc743c8U,
  0x3dc391cd3daf0eccU, 0xbd5fae48bd272810U, 0xbc02d03bbd3fc08bU, 0x3e2656433c06dacdU,
  0xbc946084be24c097U, 0xbd3c3cce3de64e3cU, 0x3d668bdc3e16cbceU, 0x3db28a823db2b9d7U,
  0x3dbd67f6bd31f01dU, 0x3debb1b63deae2bdU, 0xbc97a9e03a05292bU, 0x3d1706d5bd644dfcU,
  0xbc7eb4b33d5d5f34U, 0x3d7f8d4fbdde1553U, 0xbe00f9ffbd2ab340U, 0xbdc16237bbd1d6c6U,
  0x3e175cc9bd494448U, 0xbe2329723c968af7U, 0x3cad36d03a9c6034U, 0x3c13f1aebd7744c7U,
  0xbe261e7fbd6d1731U, 0x3da54faf3e24206eU, 0x3dcb4f34bde955f3U, 0x3d0109693dc9e237U,
  0x3dd56da7bd227aedU, 0x3debb33a3c47dfdcU, 0xbd0ce850bd60e4b3U, 0x3d4eb357bcea2ea9U,
  0x3db2f2f0bd0690c1U, 0xbe14270c3deb9c76U, 0x3dbb663b3e00b77aU, 0x3d6e68163cfbfe6fU,
  0xbdab89a1bcc7804cU, 0xbd0069813d3647afU, 0x3df7b6acbdfc0449U, 0x3c878044bdb66883U,
  0xbd9166583dc63fb0U, 0x3e0f46153cf69514U, 0x3d26d889bdbb04c6U, 0x3c5d7c89bd14bfd1U,
  0x3d02f00abb1fd2d3U, 0xbdcbeecb3d016437U, 0xbd0ebe2d3dc495aaU, 0xbd151961bc16569fU,
  0x3d34c7b03e13b410U, 0x3dc687093df80742U, 0x3de652b7bd4c44a0U, 0xbcaa61543cbe6ef9U,
  0x3e04c823bc40bba7U, 0x3d990d83be290d4bU, 0xbd5e4fb4bd6509d8U, 0x3d911fccbd06be5fU,
  0xbdb78b2e3c184668U, 0x3c01b1b53e25152aU, 0x3db0c0243d9bc8ceU, 0x3e1cb1cf3d3902b2U,
  0x3c64cbb93c846851U, 0x3d02176f3d043b63U, 0x3e1e829ebdc969f6U, 0xbd5ab7d53e1b9ac6U,
  0x3df18bbe3e10ad89U, 0x3e11f5ebbe0f9915U, 0xbd926a1a3cf8114cU, 0xbd2e1df63ccb47eaU,
  0x3b9e51d9bbcf5e33U, 0xbdf76bffbd6e6f98U, 0x3dc242573dca3b1aU, 0x3d74b8c2bc1ed7a2U,
  0x3cdb1e73bd79ab53U, 0xbd4357803d938e82U, 0xbdb392fa3d828ac8U, 0x386359983a9c4dd4U,
  0x3d8676903e2acc04U, 0xbd5ec2823d0a30bbU, 0xbda6662b3de099ddU, 0xbd498dd9bdb228a9U,
  0xbd8cea9bbdeb2d2dU, 0xbdcde3613d960af0U, 0x3de8d2743d602ca2U, 0x3dcff8303db51e32U,
  0x3b4200bf3e247edfU, 0xbc794adabdb8558dU, 0xbdab1eb9bde72c97U, 0xbd4bed723c27fda7U,
  0x3e1162e03d17f9d2U, 0x3db64df73d8661bbU, 0xbdc087583d9ca861U, 0xbd200bc53d9272deU,
  0xbd265af7bcce7d9eU, 0xbd7f45093d29a44aU, 0xbbdc29a63c94777cU, 0x3dab1691bd78b60bU,
  0x3d722e73bc722b03U, 0x3d663c653d5b3492U, 0x3cc0d6c8bdeea6c3U, 0xbe0d583d3e20a148U,
  0xbcf19c98bbdd0989U, 0x3d6ca8f33d7b75edU, 0xbd52874b3bfc3593U, 0x3d27544a3c371b4dU,
  0x3e24f6babe1ba7e5U, 0xbc983cb9bd8fb006U, 0xbd5708743d3eca9eU, 0x3e2c9dcebddb4b6cU,
  0x3d9ffef43dc8185eU, 0x3e1b59463dc199dfU, 0x3c91cb883d4f0ff4U, 0x3d8dc8e0bc8c9496U,
  0x3d7c22233e01cd2eU, 0xbc8bc5e5bd9b9b4dU, 0x3d3b56b33dd87a1cU, 0xbda75f293d9f53feU,
  0xbdb4a63cbcc28216U, 0xbdc691223e1956bdU, 0x3cd49af93e11e25eU, 0x3dba083f3cfdd8bfU,
  0x3cc65f473d78df60U, 0x3da831ee3dac278bU, 0x3b0ea7cbbde592aeU, 0x3d9e0da9bddd8c4eU,
  0x3de63636bd978f54U, 0x3d15811dbd724906U, 0xbda4d0213d39a4c5U, 0xbd822259bda4c5e8U,
  0x3d3a6f11bddc9cbdU, 0x3dc01979bb8f451aU, 0x37610e003de36250U, 0x3d9df52c3da02377U,
  0xbd1f841cbd81ecd1U, 0xbd63baf33d425649U, 0xbcfd92273df7ca43U, 0x3dea4b693dab58b8U,
  0x3d958a463c3c1bb2U, 0xbd000a4fbd98cc95U, 0x3df3414b3df02d40U, 0x3d7277ed3d78dcddU,
  0xbcbbf57f3d545ec6U, 0xbdd040abbcd5b082U, 0x3b509f8ebcb6f5a7U, 0xbdb6b18a3d98f74fU,
  0x3c88763cbdf35031U, 0x3d3e21d1bba3a7faU, 0xbda3e73ebde55033U, 0xbc9da1e03d60385dU,
  0x3d768ec1be0122d9U, 0x3cc29ee13db1dffbU, 0xbd2f1498bd727a3dU, 0x3d4eb395bda516b9U,
  0x3c48a4c3bd438da6U, 0xbe02de343da5f3b6U, 0x3d6ce4313dfd7c9aU, 0x3d4431d1bd5a1ebeU,
  0xbd865a9ebcc4d92aU, 0xbd90dcf5bc641b1dU, 0xbc74fd1ebd2553a6U, 0xbd76ca5c39ca2668U,
  0x3dbbd91ebbfbbbdaU, 0xbdbcfd583cba4ae4U, 0x3d2f053a3dd7d2f8U, 0x3d819f64bca8303fU,
  0x3b2a2c4abdf1cccfU, 0x3d8c82a7bd5710a5U, 0xbdd47a4337f30600U, 0xbdbe25d23ab6c2beU,
  0x3c6224883daa69c6U, 0xbdedbc7e3d7e527dU, 0x3d6bcbb13be0c2f1U, 0x3d6e956e3dff8684U,
  0x3bc943473dfc1346U, 0xbd69b6893dd042ebU, 0xbda7f6c33d3ed09dU, 0x3c1db304bda6bf34U,
  0x3dbc51f63dcded07U, 0xbd44faf2bdbfb622U, 0xbd5580953cfa93f1U, 0x3dfe0e023b6a8f20U,
  0x3ba676f0bde0c09aU, 0x3de7b3cebc272cadU, 0xbe0641f9bdb6e6f0U, 0xbdd8189b3de609b2U,
  0xbdd528c3bce3281bU, 0x3d38c6993da6d6e3U, 0x3c44d6683bd4f708U, 0x3d9caf94bd41f89fU,
  0xbdab9c20bda8003dU, 0xbd8f96d13d7788c5U, 0x3d5b83edbe02f60dU, 0x39ee6858bdb649f3U,
  0x3cdd8cec3d8277acU, 0xbd25f06bbd6b5331U, 0xbd3e3755bdc2067cU, 0xbc42fa283da29d00U,
  0xbddb25913c966051U, 0xbe060206bd7e3f76U, 0xbdf69602bdb85596U, 0xbdef14163df7752aU,
  0x3d8c8656bd9a0cb5U, 0xbd99dd613dd59bb6U, 0x3da13dca3d887556U, 0x3d965574bda65d21U,
  0x3d1f2966bb9bba99U, 0x3de4613cbdb2fdddU, 0x3dd1154e3ca6448cU, 0x3dd2a153bda4a852U,
  0x3d37ca1d3dd184d6U, 0xbde229ee3d3188baU, 0xbdf4487e3d9a083aU, 0xbe02f99bbdf1c456U,
  0x3c84a0b13cce14bcU, 0x3daade87bde8fd42U, 0x3d1dc211bdd1a4deU, 0x3d1d33a1bdaf3be1U,
  0xbdf5abad3dbf6612U, 0x3dd067aabc2fed45U, 0x3cf97ff13d17c212U, 0xbd3d85103d9ba4c6U,
  0x3caa711a3d09f719U, 0x3dc52e763dd8777dU, 0xbde49d333d05c785U, 0xbe08b3eabd71691bU,
  0xbda071b2bddc4889U, 0xbca336dc3df588c4U, 0xbdb2aa563ded43c4U, 0xbde205cc3d2694eeU,
  0xbdc79359bd71fa8bU, 0x3d42dd11bd0019b1U, 0x3d457375bdbb6f8bU, 0x3d909707be001866U,
  0x3de9e9e43c310793U, 0xbdd538aa3daf237dU, 0x3dcc1f5d3d8324e4U, 0xbde6eb1e3d984788U,
  0xbca561c2bd1d8e1eU, 0x39e03100bd879ceeU, 0x3daa8f023dcefc3aU, 0x3dd1ee9e3db79919U,
  0x3ddc140f3d4d56a9U, 0xbd70011fbda5e57bU, 0xbdaa43fd3d927febU, 0xbda3aa41bc9cb596U,
  0x3ccb76aa3cf58d69U, 0x3d965a0e3c6b9f28U, 0xbd5888f4bde8c057U, 0x3d63c3e9bcb2da9bU,
  0x3dc0d4003d6ddf56U, 0xbd376006bd89c051U, 0xbdc23082bd4e421bU, 0xbda38ea23d0fd922U,
  0xbd32e03abc07cd2dU, 0xbdafeee7be00f246U, 0xbde07013bcc0ea00U, 0xbd48c0cabdefd8f9U,
  0xbc46b044bd473d71U, 0xbd9120c6bd13dd04U, 0xbd377b22bd8b3d32U, 0x3ca7367abde31808U,
  0x3c24e5a3bd8c2bf0U, 0x3d2e1932bdafc7daU, 0x3de030183cee6209U, 0xba0410d43d80ad79U,
  0x3d66d6a63df43bccU, 0xbd2c6b2f3c72c523U, 0xbdebd8343d1f31eeU, 0xbd57d9de3d800a18U,
  0x3ded7b043d2d0a31U, 0xbdb4389fbc91df74U, 0xbda465103d89866cU, 0xbde4edd03e02310bU,
  0x3d16f63cbdf10c8cU, 0xbded7db43d04145eU, 0x3d8c31fdbbed8275U, 0x3dc21d483d8ced00U,
  0xbc8d4301bdbe41d7U, 0xbd58ccce3dd78a71U, 0xbd8fb3c63b710e44U, 0x3c09f8e0bd431831U,
  0x3d8b2b843dea40b6U, 0xbdff820ebe03ecc1U, 0x3d71e5483dc12176U, 0xbd8ad649bdd4a127U,
  0x3dc203c43d99baa4U, 0x3ddd6b90bb62741aU, 0x3decff91bd5bf324U, 0xbdd864733e00bc62U,
  0xbdb08369bcd229beU, 0xbd94702b3d28a7cbU, 0xbde72c58bcb89ed4U, 0x3cccf9443dd8dc1eU,
  0xbde026b63c90498bU, 0x3cf73f0c3d394335U, 0x3b5581b5bdda0ac9U, 0xbd0b4f563ce91907U,
  0x3dae2751bdfe674cU, 0x3db8b89b3c963767U, 0x3d77d9c13cf449c4U, 0x3bea85433dbbe521U,
  0xbdead45b3ceb9209U, 0x3d83533dbc45064aU, 0x3b89bf003d61fcf9U, 0xbddcc1333de9d0e0U,
  0xbce550dbbdb4c882U, 0xbd6d36023dd34b5eU, 0x3d565c02bdd1801fU, 0xba743eb8bd053233U,
  0xbc39a2263d1173b0U, 0xbd8af3083db1aa40U, 0x3d74b639bcfd2355U, 0x3d3f2bea3dbdcf98U,
  0xbcdc7e5c3dae4228U, 0xbd85ccc93db471fdU, 0xbd21154dbd988a29U, 0xbc06a79a3db419fbU,
  0x3dde1ab63d29f7c6U, 0x3c851832bdd46bd8U, 0xbd42683ebdfa66c7U, 0xbd6c4a803c3a3514U,
  0xbdb4d7883cb41f5cU, 0x3be241203dcd6087U, 0x3dadcfe43df7b514U, 0x3d61c316bdb71ff8U,
  0x3d8fdb96bd6a627dU, 0xbd8541b2bdf11360U, 0xbcda1bd2bca3a5dbU, 0xbd447a823d911329U,
  0x3e0219423d39f880U, 0x3dd91bf43dccf1d1U, 0x3d6ffcde3dc8507dU, 0xbe0173343b632a98U,
  0x3c9260b7bdb324f8U, 0xbdce832c3df1e02dU, 0x3d8480bc3b498609U, 0x3d8774673d85c56fU,
  0xbdf45bad3ca5842bU, 0xbe014ee9bc99bebeU, 0x3d156b26bd9231c7U, 0x3bf5f67a3d74e320U,
  0xbcfa766dbd453f35U, 0x3dc741c03d6e71d9U, 0xbd3f961cbdf35734U, 0x3d84efea3c4510e0U,
  0xbd636af83d118bc4U, 0xbc112a0a3e03396cU, 0x3d09b2d23da187c1U, 0xbd4960b9bdeb6162U,
  0x3dace946bc6dacb2U, 0x3d5cfc3b3c59208dU, 0x3c9f9fa5bd8dfce7U, 0x3d1c0c6abd53c742U,
  0x3db1d7cdbdd9a906U, 0xbda4108ebce0d51aU, 0xbde1d3d53e0500feU, 0xbd9bbfb7bdf64a2dU,
  0x3c07f8d23da421ccU, 0x3cfb4f23bde8d6d5U, 0x3c24b805bc9ec094U, 0xbdb874203ceffcdeU,
  0x3d1bb61839018ed8U, 0xbcb90f193d9bdf46U, 0x3df24d8c3dc36d91U, 0x3d6e3e9dbbbf04dfU,
  0x3d2632393d4c0ccfU, 0xbdcc58f7bd891bdeU, 0x3d31ef1ebd90fe07U, 0x3cd4e766bd397104U,
  0xbdcbc6ac3cefdce7U, 0x3deafe28bdce1dc3U, 0x3de6fb60bd920d2bU, 0xbdd1ecba3d65fd7cU,
  0xbc3afb76bdd6e575U, 0x3e07a1583bf51752U, 0xbe024079bb1ec5b5U, 0x3deaf1a5bdc512c5U,
  0x3c8896efbd8bacf0U, 0x3db984943d45b8deU, 0xbe049d25bd69888aU, 0x3c011735ba0d8118U,
  0xbe049e4d3de9800cU, 0xbb84fe52bde229c1U, 0xbd2c009dbdaa7b26U, 0xbda1c0253d500808U,
  0xbd2a9779bc1550dbU, 0x3dd888613d192c37U, 0x3dd912d43d1debebU, 0xbcbabbde3d4a73afU,
  0xbda469dbbdcd006aU, 0xbd8bd473bdcda45aU, 0xbda24950bdc9a97eU, 0xbd43e75a3d662db0U,
  0xbda5d7b83e001290U, 0xbdf2294fbdc96483U, 0x3d3e58b1bd894de6U, 0xbd9778543d832980U,
  0xbd82cf853c34f8beU, 0x3df82339bd8106c0U, 0x3da42473bd266d12U, 0x3dee9e6bbde2c59dU,
  0xbcb8bc2ebe09f74eU, 0xbd34d4e93c3cac1eU, 0x3dda52c73c76f8a5U, 0x3e02e7debdf3d6f3U,
  0xbd770210bc4e2b52U, 0xbd96fe973cb5bbe3U, 0x3c4132423c8a7a6aU, 0xbdcc52e43c4421dbU,
  0xbd50111abd969c1dU, 0x3dc64455bd759d8cU, 0x3df3fd70bd74bc0aU, 0x3da5a0a6bb749b7aU,
  0x3d593bc53dcccac8U, 0x3d9168d8bc84c674U, 0x3da9837b3d9ae7afU, 0xbd4f04ddbd721b39U,
  0xbcc78469bce569a5U, 0x3d9a3f83bd0fe1c9U, 0x3b901c703b170049U, 0xbdd955bdba7706f8U,
  0xbdaea1f1bcda43b3U, 0xbde4be1fbc264a6cU, 0x3e0f90bdbcfc87d6U, 0xbdb220a3bd6da875U,
  0x3dc696febdc5aa38U, 0xbb9060e2be28ca60U, 0x3cd1be863c789e86U, 0x3d81b0e6ba9b4b44U,
  0x3c20e2923b35e93cU, 0xbce4416ebc002906U, 0xbd5b4f19bd91495dU, 0xba58ec7e3d9e9232U,
  0xbd5a1a24bc7742dfU, 0x3de2b8513dea6ab0U, 0x3bbcc5b8be19f805U, 0xbe1e284e3d8dd0aaU,
  0xbd1d4d513e215a41U, 0xbd58aa90be31ae27U, 0xbdb8bbb0bcde2b88U, 0x3e2973a63dfc4a55U,
  0x3ddf312dbc7a7a1dU, 0x3d1974ec3d290bddU, 0x3b1811b53dbbcdcbU, 0x3dcf080e3d2705c9U,
  0x3d0cc1da3cc55499U, 0x3e2d6f9ebdb7b72dU, 0x3e0c4b293da1101bU, 0xbe15bc2cbd03dab7U,
  0x3da36315bda0e5daU, 0xbdaba06e3d1647aeU, 0xbd911076bceb3111U, 0x3dd971d83e17f593U,
  0xbcb371e6bdfa45f7U, 0xbe2a0ca9bd4d0b6aU, 0x3d9519f9bd01cc2bU, 0xbcde1e98bdf7a8eeU,
  0xbb17ee373c85ec8dU, 0x3e1106c93d310221U, 0xbc644a773c17b51fU, 0x3d65da503d8045d3U,
  0x3cf83b093e050235U, 0x3dbb833dbd94588eU, 0xbe1007173d5ee71bU, 0x3cded6a1bcbd68b1U,
  0xbd275089be25aa66U, 0xbdd55cb2bcc2125bU, 0x3d4b73a83d05989bU, 0x3e12bf51bd6804abU,
  0xbda515d53dd7759fU, 0x3df59b823d711ca1U, 0xbd524dc8bdc4de2dU, 0xbc88caa03e269041U,
  0x3d53f11e3d397b15U, 0x3d1c42a2bd4a37efU, 0x3d910294bd4e5faeU, 0x3dbca0efbb719999U,
  0x3da39734be27bd94U, 0x3b004c2f3dfa49deU, 0xbc1282a43d4e0282U, 0xbd8526633d0ddda1U,
  0xbcfd29973db3e47fU, 0xbd2731f43e1bc6e5U, 0xbcf30629be1d74dbU, 0xbdc025f43c8bd7d6U,
  0xbd1fda303d4b6c20U, 0x3da15182be25c246U, 0xbd50c3debdb2c393U, 0x3e0c8f30bcb80f93U,
  0x3de3e437bd2e0cbbU, 0xbdac52c03de36dbdU, 0x3dff2a05bca364f9U, 0x3d8591d5bdb8710fU,
  0x3c14a1d33d9f4b6cU, 0x3dca45133d853ec1U, 0x3dd46ea63d70fb56U, 0x3d9e4e2a3ad6bec0U,
  0x3d935a763e0395beU, 0x3e002c0a3d1b1731U, 0x3d517f97bdb23629U, 0xbdb20f1bbd85311dU,
  0x3ccfd9b03a655a08U, 0x3bfe51273dc85da3U, 0xbda7b72a3de184cbU, 0x3df3a334bdba04afU,
  0x3d25f7653db3ff1eU, 0xbc8a2205bda034f3U, 0x3d1a5053bc4614f8U, 0xbe1591203e012983U,
  0x3dabb7c7bc6b6427U, 0x3bc46270bd3439b2U, 0xbd8a877c3d9124e5U, 0x3ddeab8ebc8e99d3U,
  0xbd57f5dabd32f1b0U, 0x3d95a2833d9a00faU, 0x3da12fb93e05a2dcU, 0x3e0c940fbde03456U,
  0xbdff2f61bd5c5d6eU, 0x3d7c00af3c647901U, 0x3d8be56cb94177ecU, 0xbde7853e3e0a7f67U,
  0x3d5328343d9a103bU, 0x3cf0fc503cf57316U, 0xbe2847193cab97efU, 0x3dacb6303cb1c7efU,
  0x3d794cb33d107efeU, 0xbdae33e1bcad2ba5U, 0xbbeadb2a3e01a0c7U, 0x3e22404c3cfce988U,
  0xbdd431f73d341729U, 0x3b7553a9bd94fa66U, 0x3cdb144cbd0509dfU, 0x3b610915bcfb78bfU,
  0x3da20d473e18123fU, 0x3d9b880739384f31U, 0x3daf72a33c4bfb2aU, 0x3df4aec6bd2a16a4U,
  0x3cf455d4bc9321d7U, 0x3d82cebabba52eb2U, 0x3c5b1a36bdbfc8abU, 0xbd800a85be184a38U,
  0xbd7706793d8fb1ddU, 0xbdb87ccf3d89a5f8U, 0xbc528dddbd50dc60U, 0xbd96c5df3d62faedU,
  0xbd3e1806bd9bffdaU, 0xbd2ff25fbd0c088eU, 0xbd0c53eb3e1b6f1bU, 0x3e25c2e23d2c9eedU,
  0x3e1e0872bdb7825fU, 0x3d2589353e116bb9U, 0x3deccc8fbd3ece28U, 0x3ddd5268bcf509faU,
  0x3d79efb8bd66d842U, 0xbd8fe732bcdc3a36U, 0xbce27b8cbe1357a2U, 0x3d1a9dba3e08fd69U,
  0x3e1a5cd03cbddce1U, 0xbb019a283d314b74U, 0xbd8917173de4529eU, 0xbcfd90b8bdbaef7eU,
  0xbd291a0e3d74497aU, 0xbe1a107b3e1b1b9cU, 0x3c361b78bc0deb50U, 0x3dd852d9bdad933eU,
  0xbd006b75bd84f989U, 0xbd38c1aa3e00a201U, 0xbd6de02bbd2e9ce0U, 0x3da34d543d9b3681U,
  0xbd98d31cbbbb5d27U, 0x3db60f413daf65e7U, 0xbe0918ac3daa2418U, 0x3abfa5fc3e199c3bU,
  0x3dce02f1bca2cdbfU, 0x3cf22d5e3e174bcbU, 0xbd45067b3ded1c06U, 0x3d870c01bd20301aU,
  0xbd637843bdbae4e6U, 0xbb2a38dcbc2df897U, 0xbc8b27e13d803880U, 0x3d140c2e3dc844a9U,
  0x3dd1a12c3e180981U, 0x3dfe76aabe2021ddU, 0xbcaec156bd2c3df4U, 0x3d61e1ba3e304183U,
  0x3e2338df3c2f8abdU, 0xb8446ffd3dab59faU, 0xbd579fce3c97b45fU, 0x3dccf442bcee71e9U,
  0xbdb02c443dbaa9c7U, 0x3dc5b73fba5a8997U, 0x3d0b0a84bd8cb95dU, 0xbde71c283ded7588U,
  0x3da271853d35cf4aU, 0x3e06ee27bd7ab448U, 0xbe18b7a8bd81cfa6U, 0x3e0bb234bd118cc1U,
  0x3e2d3b0abcf8b3efU, 0xbd8711873c996f2cU, 0x3d8fec803b9d92fbU, 0x3dc193243d3f4e8fU,
  0xbdd428af3ce46da9U, 0x3d95adae3e129b1dU, 0xbcffc99abdd0632aU, 0xbce110dd3e076be0U,
  0xbdada7a0bb9473a5U, 0x3da50d743cad38afU, 0xbd3e3746bd83354cU, 0x3daa4b8a3d7500f2U,
  0x3cc66c2e3da63be8U, 0xbd0ede423c8990e4U, 0x3dfb9b1a3c0a3278U, 0xbd1a874fbd5d284fU,
  0x3d430fbabd591da3U, 0x3ca2d8153db8d502U, 0x3df7d8e13d82af0eU, 0xbcbabcc6bd9459c5U,
  0x3dd750923d66e5d1U, 0x3da28e0abd5053f3U, 0xbcd48fc93d1dd7d2U, 0xbd82e31c3d2980ceU,
  0x3e1dd1103c291c72U, 0x3d58ebd93e1dfd61U, 0x3d9925b13dfc551fU, 0x3df42c893c07d4a4U,
  0xbdd050403decc685U, 0x3d112806bda4493aU, 0x3e18ec80bc39cd1bU, 0xbe29223d3d7c3c77U,
  0xbdc935efbd8b5700U, 0xbd389c723da552a4U, 0xbe07c5c93df689c1U, 0x3c8646d63e21c34cU,
  0x3d34524cbe1ccfc0U, 0x3d23bd26bd052483U, 0xbd96a96a3c899806U, 0x3cb40e69be00a718U,
  0xbd2577bb3de5f656U, 0x3c589aadbcbf8711U, 0xbcc9f927bdbac8f9U, 0xbe1ae25e3e0dd3f9U,
  0x3e0cda323d93a6abU, 0x3d01e2dabe018e15U, 0xbdecedc13d42dd3fU, 0xbd97de563d1e3e99U,
  0x3e361cccbe2444f4U, 0xbe2ead32bdc13427U, 0x3c071e853e26f9b6U, 0x3d856794be101f4aU,
  0xbdddd54a3d6b4ff9U, 0x3dc677403e2af6acU, 0x3e37160ebe078a0dU, 0xbe014d003d3f40e1U,
  0xbcfd231f3d3aeaacU, 0x3e32d49c3d256cb8U, 0xbe1410023da10ac8U, 0xbcec7a69bc47d5fbU,
  0x3dc6ea3abe02ad01U, 0xbe23b44dbd5471dcU, 0xbd4591e33d8ad9deU, 0x3e0ad3203d6a225eU,
  0xbd6567d6bd8f15adU, 0x3e0e39243e012844U, 0x3d772bd43d862f72U, 0xbe03add33dde2dbbU,
  0xbd45627dbd65053aU, 0xbd830995bd9ed637U, 0x3dadd1b1b84150bbU, 0x3c81de66bda16a90U,
  0x3de6b27bbcfa0474U, 0x3dab09993d6b1a57U, 0xbc46ac5fbd4b76d5U, 0x3e2593a4be2974b5U,
  0xbe29fe663b8a0e9fU, 0x3c82b62a3d94b4b7U, 0xbc282dd6be23d781U, 0xbdd822783da51435U,
  0xbdaf753b3e1bb93eU, 0x3daff769bd989bb4U, 0xbd9f8e49bdc70552U, 0x3e0052cc3d3ddec8U,
  0x3df37c333d29b4a4U, 0x3d18a474bddac71bU, 0xbc80642a3d7a8a8bU, 0x3e271198bd15197fU,
  0xbd98e0843e00fba6U, 0xbd78a6d1bcffc6adU, 0x3de6261dbdb898adU, 0x3c8f5fb0bdba3239U,
  0x3cec2d6c3e2d6a49U, 0x3e171a5dbe09b139U, 0x3b1c6beebc35653aU, 0x3d9ee7723c19ff33U,
  0x3e03ec903cea9212U, 0x3c55295b3e13e885U, 0xbd0f4334bc12a8e6U, 0xbd9c63573ba0261aU,
  0xbd96c7a23c456627U, 0x3de55497bd30b296U, 0x3dcaa178bd79f139U, 0xbdc453633be43e23U,
  0xbcb181abbc51d9a9U, 0x3d46215abdf0cff2U, 0x3b5ac1d13df6d0d9U, 0xbc9a056d3e0f299dU,
  0x3cc973853d813d85U, 0xbd3928d33d161236U, 0x3dd0f638bd4bb661U, 0x3e11c53d3d47171eU,
  0x3b180a563d5b4a90U, 0xbd0e53bc3e3350d6U, 0xbcb8c389bd0188ceU, 0xbe1e77163b6193dcU,
  0xbd042f583e30d190U, 0xbb0eca22bddf0c53U, 0xbdf6650abdd34a03U, 0x3d50ca13bc4ffb3fU,
  0x3e2e104dbda095f4U, 0xbdc4c9dd3cc1135cU, 0xbc64aa1f3dd3a4e7U, 0x3e1184da3db31b83U,
  0x3c3680b9bd3ee9adU, 0x3d2fe83c3d57a24fU, 0x3d0185733df8adebU, 0x3dceeb58be077f4fU,
  0xbd984b5cbdc00753U, 0x3deba1313d05ce7cU, 0x3d864fcfbda22e72U, 0x3de54c003d6a2907U,
  0xbd5b703bbd8f8abbU, 0xbde909ae3d43ed5fU, 0x3da51d563d9bca9dU, 0xbce577b63d9fa93bU,
  0x3dd28867bc1bb9eaU, 0x3ddca3203b84a2f5U, 0xbe01f2f33dd78aa4U, 0xbc1f2a3a3c0702aeU,
  0x3de8bcd2bd9b1dbdU, 0x3d05a2f3bdae5bd9U, 0x3d951c4b3de54e0cU, 0xbd0eb2673cb2b796U,
  0x3cb3b2c5be003355U, 0xbdb47e123ddd9cd4U, 0x3d146e27be0918a8U, 0xbd9e2b5d3c1d4c01U,
  0xbd8d2f563ceb3f17U, 0x3cabd53f3d40f59bU, 0xbd27fbc7bddb3619U, 0x3d355decbdb2ba73U,
  0x3d8289bc3d814543U, 0xbb869e8abd1b9380U, 0x3e00e8983ad8386cU, 0x3d8bfcf8bd8bcf04U,
  0x3d1cb873bd8bc701U, 0x3d8c16a9bddd936fU, 0xbde9c7153cd8e646U, 0x3db81041bb276e5aU,
  0x3d288216bdfa2aceU, 0x3df24f06bbba00ebU, 0xbccc2d873d35fc08U, 0xbdf60c9b3dbf3e10U,
  0x3d98ecb83d0b2a0fU, 0xbd1af2a53d92b8bcU, 0x3dc1e5c83dde7222U, 0x3d68f81fbd6892dbU,
  0x3e00aaab3d73b9b6U, 0xbdaaaae8bdd9a162U, 0x3d51feb7bc5bc6edU, 0xba92152cbdc9debeU,
  0xbdbc8d4e3d29139bU, 0xbe027ce6bc21a575U, 0xbe0666183db70c9cU, 0x3d04cf23bdf5caf0U,
  0x3daafc7c3d7d59fbU, 0xbd822cb5bafcfe1eU, 0xbdf345ee3c37472eU, 0xbd5bde47bc46484eU,
  0xbdfbb20c3d0957acU, 0x3b86b75c3dd22c48U, 0xbdb4b3283da51785U, 0x3d06ff7f3c8d4687U,
  0xbdf51f4cbdf1d23fU, 0xbdeacefd3ceee7a5U, 0xbd85ba1fbdfba241U, 0x3c4733a0bdd99529U,
  0xbc9773793cd72f76U, 0x3db27c7f3accae10U, 0x3dd604143dfe8a02U, 0xbcc4dfa1bc6d369dU,
  0x3d6fa7ebbdf6ddfbU, 0xbd6331be3de81fc0U, 0xbdd6b234bdff7ac9U, 0xbd783cadbdd11a0aU,
  0xbd8192eebceb33a5U, 0x3dba33b63de92a57U, 0x3b0d492bbda1e84bU, 0x3d9559e63dbc7930U,
  0xbdee40ce3df5d135U, 0xbc885ce33d9dd543U, 0xbd24e6c53cdb3507U, 0xbd6da301bdf8b173U,
  0x3d8d643dbc7c360aU, 0xbdfe25c3bdf3ef4dU, 0xbc110c823d448f0bU, 0x3df93665bd5a988fU,
  0xbdb7862dbd9050b6U, 0xbdf4dcfdbd673599U, 0xbd6e1b23bd33a9f4U, 0xbdfb73803d8ace96U,
  0xbd97d1babd2f7501U, 0x3d69477fbde427afU, 0xbd61cb503dee2bdaU, 0xbd7c58adbd8f5ba5U,
  0xbd6a8d553ad25bdaU, 0x3b3934db3dc52764U, 0x3de83fd0bd800536U, 0xbd145539bd6c1822U,
  0x3defd988bda0fed2U, 0x3d84323abdff7d07U, 0xbdb57d773d08f547U, 0xbdc41ff03d333874U,
  0x3dfef4823c9bd285U, 0x3d8afa2fbc6619c5U, 0x3d9b19623d80e140U, 0x3d8be0263da398a9U,
  0x3d2a009fbce2669cU, 0xbd934064bdda717cU, 0x3d970fde3d90272bU, 0xbd34a7193d0e3978U,
  0xbd9dedeabe0905cfU, 0xbb5ae1cabdd30439U, 0xbcfa24133de52a89U, 0x3dfcad97bdc30327U,
  0x3ca017573e00c9f7U, 0xbde78883bc92aeaeU, 0x3cce23763c02806eU, 0xbd41bb2138bf4560U,
  0x3d883b9fbd84576fU, 0x3df830dc3d778a47U, 0xbca3a3193d835827U, 0xbdc4244d3db3a65aU,
  0x3da73cca3c4d29aeU, 0xbc4a038a3d65dc3bU, 0xbe06b040bd538f72U, 0xbc9a9c763dfc4ac6U,
  0x3d7e581fbdca0a21U, 0x3dc6c7abbde82e63U, 0x3c6a3f703de768caU, 0xbd5b08ba3d90d187U,
  0xbe031d5d3c96357eU, 0x3d970ab33dad5802U, 0xbab19792be06c8a9U, 0xbdd469813c0a4358U,
  0xbda6504ebc202762U, 0x3c05e3ae3d8d5665U, 0xbc926733bdfc5f49U, 0x3df8f8c4bdc53520U,
  0x3d72c99b3dfcf549U, 0xbdc82393bdd11ae8U, 0x3ad8c5603c83341fU, 0x3d370367bdcbc1d8U,
  0x3c4c8a0bbe007bd1U, 0xbd87f369bd19d801U, 0x3d96bed63d1130d7U, 0x3dbb01773da91435U,
  0xbc9649d4bde522b4U, 0xbc4d054a3d3be1ffU, 0xbdf7aee1bdc27889U, 0x3d4322173cb98ec7U,
  0xbdfc12fbbdc06dcfU, 0xbb228f963def721cU, 0xbd613b283d43f1c3U, 0x3dcffc8ebcd2665bU,
  0xbe01555e3e4071eeU, 0x3d35cd4b3e0131f9U, 0xbd5f582dbc6b3e67U, 0x3d76d8bebcf5314bU,
  0x3baae2a5bd9bf8c6U, 0xbd1d72343dc240bfU, 0xbe06f6983deb5363U, 0x3e461ac93dd87224U,
  0x3d7d860b3de0a4c5U, 0x3db058e73c378ddbU, 0xbd3edafebe036d7fU, 0x3d089440bda83c0bU,
  0x3c9a4cb5bd144e84U, 0x3baa59f8bdc21719U, 0x3d3005373d8a87c5U, 0x3ca481883d36279eU,
  0x3d6bba3cbbd45ef8U, 0x3ddd1afc3db3ed85U, 0x3d05a5cc3e49a4b1U, 0x3e0cf2293d54cd4aU,
  0x3c1e16fbbd6ff284U, 0xbdc6da3bbd4e5894U, 0x3d6c19853d3be036U, 0x3d9c78973d4beb31U,
  0x3dd0d42bbc86ee36U, 0x3d9ba21a3b64fc3bU, 0xbdd078553d98b920U, 0xbd17f8503e1eabacU,
  0x3cc23d3a3e036897U, 0xbd7f40063cc01e0eU, 0xbda9c8c5bd04aff4U, 0x3d3ac4173dc177a6U,
  0xbd8c3740bb95d668U, 0xbad3262c3dca094cU, 0x3d707a333d8d4d62U, 0x3c494db4bde1eeeaU,
  0xbe0e17c33e1ef3aeU, 0x3d3f57f33d8028d7U, 0xbdae8cffbc715125U, 0x3d48e8f43d83297aU,
  0xbcea442e3d84b122U, 0xbb574a80bcccdb3dU, 0xbe109ffd3c5eeec7U, 0x3e1086843d0236f7U,
  0x3da3f940be037ef9U, 0xbe0527b63e17f153U, 0x3e30b6c33ae9a40aU, 0xbd5f7698bd35d173U,
  0xbd82f107bc410785U, 0x3d101ec83d0d9d0eU, 0xbdb1ec8abe0afb75U, 0xbdc3ca983d9f68ecU,
  0xbcdb9cd73de6b951U, 0x3d293f96bd9967aeU, 0x3dbb26713df428e0U, 0x3d9ca3e43bf94dfaU,
  0xbc1de96a3db74ee4U, 0x3ccefa1b3c9f1105U, 0x3de20d943d20602bU, 0x3d0f1abd3da26fbcU,
  0x3d0725db3e1857d4U, 0x3e31cf443da15bd2U, 0x3cfae131bd9bb09eU, 0x3cb592253e0bd34cU,
  0x3d68c09f3c2ea9c6U, 0x3cf912c83b48607dU, 0xbb9ce6ba3b0bde51U, 0x3d6b8d5c3daab338U,
  0x3cd973da3c65e485U, 0x3abcc7d63dd3b674U, 0x3ca928bebcd511bbU, 0x3df5442fbd81f479U,
  0xbc3acf803db162ebU, 0x3ca46ffdbd52f5dfU, 0xbd7f8cf2bd53e386U, 0xbd4be5b83e15ece9U,
  0xbd5c11cdbdac2738U, 0x3e04f954bdb02aadU, 0xbdbb28c73defbefeU, 0x3c5c45953c9e2efeU,
  0x3c34b2c33d2cfbd5U, 0x3d8e8c133cb3e296U, 0x3ce944d83cdc9f38U, 0xbd6ffa023db8ead9U,
  0xbce784553e315871U, 0xbd372a2cbd161dbfU, 0xbb61f7a5bd731a2eU, 0x3de612973e364514U,
  0x3cb642183d87d45fU, 0x3d3cc108bda01664U, 0x3da781623ddd9016U, 0x3d0b692dbc984af8U,
  0xbd988c493c8c73ebU, 0x3d8cadda3e121060U, 0x3e189f04bda2789eU, 0xbcf4a8b0be022c30U,
  0xbdd751ef3e20617eU, 0xbcf61f9c3cc9b425U, 0xbcc9c744bde3b5caU, 0x3b2a3da73d91feb5U,
  0xbd621526bda4aaa1U, 0x3dc3e614bde54570U, 0xbc6cb12f3e408d49U, 0x3da24e873dd7ba0bU,
  0xbdf276fbbd400b60U, 0xbe16b2ed3d207658U, 0x3e20c95c3d7d7474U, 0x3c16dea73de71ee9U,
  0xbd8f3c2b3cac6cb6U, 0xbc8450943d725ed6U, 0xbc6696dcbc52c4deU, 0xbe0290b43cde4773U,
  0xbcfda4b3bdc57b52U, 0xbcc89acfbbea33edU, 0x3d8504cdbd1dc00fU, 0x3df6914fbdf56921U,
  0x3cae0fd6be17d648U, 0x3d9c93243e3289a7U, 0x3de19bc9bd86bd7dU, 0x3db8c093bdd6a5b8U,
  0x3cbf71dd3e200060U, 0x3e22e853bda3f57dU, 0xbd76dd55bdab17eaU, 0xbe0034a23d9a6c0fU,
  0x3df916643c8ec8dfU, 0xbd201ade3d145c31U, 0xbcb298873d936c3cU, 0x3d9ffee83d3c1a3dU,
  0x3de1eb8cbba401ecU, 0x3d8f68133c86fc3eU, 0x3d7c9d5c3dbf25d2U, 0xbcb6cce6bcfb65c8U,
  0x3d39290d3da68cbbU, 0x3de62c02be03a3e1U, 0xbcd3c3a9bd67eedfU, 0xbda7458c3dfb40b3U,
  0x3e1cba7f3db5f969U, 0x3e05bde73c067f40U, 0x3d4d8d46bcee5844U, 0x3e476e4f3dc1b8f2U,
  0xbc93872bbdf5a94dU, 0x3db6d6ed3e20ee04U, 0x3b7ba50e3d8cd4ddU, 0x3c3d724abcdac4e7U,
  0xbd61fe873dd8eb51U, 0x3de9fcfabcad75d0U, 0xbde86ca4bda4eb5bU, 0xbdb54d1fbd3c5241U,
  0x3de1ede73c5071f4U, 0x3cf174763c8d8794U, 0x3d8995643dd9d10cU, 0xbdae3a5dbdadee13U,
  0xbdae313b3dcf7726U, 0x3dfc17163cb79bb7U, 0x3daff37eba81e09eU, 0x3d8538b5bc90cedbU,
  0x3e2135dfbcd30ae6U, 0xbd541309bddc074eU, 0xbc2145723bb76a70U, 0x3b2481a83d84d013U,
  0xbda98bccbd6c1e68U, 0x3ccd53cb3ca733eaU, 0x3daba70f3da13584U, 0x3e0288683c2728deU,
  0x3cd58d49bd509ecfU, 0x3bd8b3b2bd5d6448U, 0xbd0b066cbe189acbU, 0x3d8f24e53d47064eU,
  0x3e1355793cac03c7U, 0x3da523823dc1153dU, 0xbd2adf3c3e1bd667U, 0x3e28d9ed3df81450U,
  0xbd66243e3d366134U, 0x3d9dd889bd8a2c2dU, 0xbd9155cdbdba51fdU, 0x39ca4925bdff9001U,
  0xbe19b43e3dd33eaaU, 0x3e2da2d63d14f0a2U, 0x3d98dff23d70f8d0U, 0xbd8e3f733cda9a17U,
  0x3d0795aa3e0c81e2U, 0x3d186ca53d509884U, 0xbde6ad553dd3defaU, 0x3d067bcdbc1cd49bU,
  0xbd9cfd13bde1fd93U, 0xbcde6eb13dc35bbbU, 0x3d0cc0773aa01cf9U, 0x3e1046c63c98f993U,
  0xbdaf4d63bcdc8274U, 0xbda357f53da8d242U, 0x3dc56ccabd8a12c7U, 0x3c959b333df06511U,
  0x3d1c6474bd05d500U, 0x3ce7d96fbdb30497U, 0xbd4a9f69bcebe1a7U, 0xbcf5203b3dd29893U,
  0x3de0b98ebdcb8724U, 0x3d7800ccbc705dc4U, 0x3dd400553d7fac36U, 0xbc6f70c7bce6c2e6U,
  0xbe130a053dfc074cU, 0x3df457a2bd9d7cceU, 0x3de0eeac3c6b8c62U, 0x3d4e29e33c364499U,
  0xbdb04187bd95d280U, 0x3e12b1b13d32d1d5U, 0x3d562862bc5d3706U, 0xbcf88edf3c9f2649U,
  0xbd93c652bdd7fd65U, 0x3aa4c887bdaba352U, 0x3d32760f3de49eb7U, 0x3d3bd9ccbe11b125U,
  0xbde57567bcbe9a58U, 0xbd7fb471bd505f99U, 0xbd95df64be1a94efU, 0xbd6d25243de2db19U,
  0xbd2593a1bddb0daeU, 0x3d82fd25bd2eb897U, 0xbca3601b3dea214dU, 0x3e1a5147bd928c8eU,
  0x3e02f9bfbd2706d8U, 0xbda6e6eb3e2841b0U, 0x3d0a1630bd1c7c3aU, 0xbdd55a503d89bd5cU,
  0x3d2a07263c3521f0U, 0x3c3e3c0f3dcc512dU, 0x3d315551bd7f46f5U, 0x3db8cbc43cf45b3dU,
  0xbd03ffd73dd24504U, 0xbdb1e422be03814eU, 0xbe0188a73cd40fc4U, 0x3e1de2c53bde9c64U,
  0xbc281fccbd748b16U, 0x3be074fcbcdba909U, 0x3dd2d8fabcd3c54cU, 0x3da00dc13d4a7e34U,
  0xbe17d4163cb53342U, 0xbd70c0143e0af404U, 0xbdd6ba223d3ef24eU, 0xbddbc6e03dbe9516U,
  0x3e1d0bd9bd996fa1U, 0x3dee675b3db2b3b6U, 0xbd057e53bd0267d4U, 0x3d1fcb4dbdcfd85eU,
  0x3dedcbecbd9ef2afU, 0xbde632103e2787f6U, 0xbd3146c7bdb34708U, 0xbd5360093dc5c9c7U,
  0xbd87ec8cbd0414ffU, 0xbc8fb3f33c3b5d44U, 0x3e0c9727bdeb5ea6U, 0xbe1a8ea63df7537cU,
  0x3c0b4b6a3e10befaU, 0xbdc7524e3daa4726U, 0x3c0504a73e18db02U, 0x3b14b2da3dcfe099U,
  0x3d7ed285bce76751U, 0x3da6ad543e0bde4aU, 0x3e214d203dabcec9U, 0x3de1c4d7bdb15e68U,
  0xbcba6bf83e251687U, 0xbda15a22bd9e1689U, 0xbc79a56f3d6f8a9dU, 0xbd1bf80abd9ec6c5U,
  0xbd80514a3df09479U, 0xbd87df01bd517c17U, 0x3c6e67183e0b78bbU, 0x3c9d96df3da3747aU,
  0xbc3393993d373a88U, 0xbd4d6703bd100990U, 0x3dd0e7443dc66d1fU, 0x3c94a48dbd8d7dd3U,
  0x3dab70623e06f0b9U, 0x3d782aa13d8c7ea2U, 0x3e0a37dbbcddfe63U, 0x3dbcf9a33ddb3f95U,
  0x3d5fc44fbd1f5685U, 0x3dce41e2bc8ab3c7U, 0xbdc911373d8ec8b4U, 0xbd9b920e3d72d71bU,
  0xbce182cb3cd309d2U, 0x3ca66ec03d7b79f9U, 0xbd92df2ebde3c988U, 0x3e035331bda4d0baU,
  0xbde3cba43e1be57cU, 0xbd47732abd1e6f71U, 0xbd03e616bda522c4U, 0xbb81cf08bd224937U,
  0x3dc4eb40bc946943U, 0x3e05ef46be1584d6U, 0x3cd8db133dabb654U, 0xbd23a7ccbca7e8dbU,
  0x3d688eddbdead2baU, 0x3dc9056e3d23aa5bU, 0xbc8923efbd00fecdU, 0x3e0d4e3abe07421dU,
  0xbdb4e1ffbd2468dfU, 0xbd6237febd9843ecU, 0x3ce6f5a0bc19ec81U, 0x3d3676453dcc5cdbU,
  0x3e0676aebcb23b90U, 0xbcde135e3d1675e8U, 0x3d783c7a3daca8e1U, 0xbd8a7d10bceba9d7U,
  0x3e2e99f7bd2c94f2U, 0xbd8926fcbda2a62dU, 0x3e0560fabb15d307U, 0x3db5cbf1bc2084feU,
  0xbcf5d0073e267c3bU, 0xbc9e6358bda96aafU, 0x3e1b7aca3c487928U, 0xbd3b5962bcdcc8e6U,
  0x3de97ef33dc65204U, 0x3d9b7de33d1ac4bcU, 0x3dff739b3de89302U, 0x3d5504a53da8ad90U,
  0x3da49d593df7556eU, 0x3e053b2c3dd945feU, 0xbda56bb63de45409U, 0xbd937a08bddb8bcfU,
  0xbbd4d9e5b9c788d9U, 0xbd1327d23e286021U, 0x3db55de4bdce58a3U, 0x3c78457f3e1c9b08U,
  0x3e1eb2573dcb82efU, 0xbc14a2953cb71b22U, 0xbc829845bd9eca4cU, 0x3d3803123cf362d2U,
  0xbcf94e473dcde1d7U, 0x3cbeddcc3e03de06U, 0x3c19a2b2bd83a7deU, 0xbc3f92e0bd23a1cdU,
  0x3d5bed2e3dff90baU, 0xbca61b5cbc038d3bU, 0x3e1e6818bdeb2ef0U, 0xbc9b73353cf7d274U,
  0x3e271559bc9ec4f5U, 0xbd13e7bc3da029ecU, 0x3b9eab3a3e10b463U, 0x3df55faf3c89cbebU,
  0x3d6c79763da680c5U, 0xbdd1bacdbb5c285dU, 0x3d7a526a3e2a0b91U, 0xbd4fb51fbd0692c6U,
  0xbbe369043d8d2428U, 0x3e06fce83e0f24aaU, 0x3d88bb743dd0fb3aU, 0x3cce642e3e02142eU,
  0x3ca8ba0b3e125075U, 0x3e2b60683d310733U, 0x3c98b6cd3d7d0bf4U, 0x3db97ca43dad0d10U,
  0x3e1b40a5bc9a91e5U, 0x3dd0c6993e003ac4U, 0x3cbd27ebbd5ee775U, 0x3de1598f3daa05b7U,
  0xbd40970abd65d103U, 0x3da1e1153d99a8ecU, 0x3e0a01333dbeef01U, 0x3dc9141abbe42395U,
  0xbd935ed8bd808805U, 0xbd1b8ecd3d8aeafcU, 0xbd76767a3cf138efU, 0x3dc5ad35bd7c650dU,
  0x3e0078e43d2f7ca8U, 0xbdae02253d58099fU, 0x3d91b6ad3db14a6bU, 0xbc3dd3a4bcf171acU,
  0x3dff3f6e3e1e11b0U, 0xbd9d64e7bd636957U, 0x3e2a6a403d89b2a0U, 0xbd7e3aed3d894303U,
  0x3901f54ebda652a4U, 0xbb56b0bb3def993eU, 0xbca8d96d3d7a6c7aU, 0xbd57568c3deb8a8eU,
  0x3e1bd50abde55079U, 0x3d82b3093d333974U, 0x3e209c7d3d165da8U, 0x3dea2ee5bb8f518bU,
  0xbdce69d63e1411eaU, 0xbd716bcebd4722feU, 0xbcee579dbc97eb07U, 0x3d91bad8bd502a86U,
  0xbdc7c1283da97556U, 0xbd369c653e058f63U, 0x3cb4af5a3daf0eb4U, 0x3d027f723e336d37U,
  0xba001d7f3df63330U, 0x3d2a98a63dbd12ddU, 0xbc630b4e3e2d7a7eU, 0x3dc1babb3ba6f07fU,
  0x3da65cf93ddd56ecU, 0x3db495f03b93a8f8U, 0x3e0984cabdd837c5U, 0xbdca311ebd963ec5U,
  0xbbe22f923dfe3a61U, 0x3cc9cf5a3da9f080U, 0x3d7e2ec83e0f6c7cU, 0x3e1538043db47fc0U,
  0xbcf426c3bdc70158U, 0x3ddc1b79bd3901b0U, 0x3d6a61b03e07e880U, 0xbd84ef523d186a3aU,
  0xbdbadcf1bd160c1dU, 0x3b71af013d72452fU, 0x3e311d85bdfd5bb6U, 0x3db38f593d350478U,
  0xbd8bfc98bd152e64U, 0x3dc543d23c312e19U, 0x3e0c39ed3db4ceabU, 0x3db10596bda98fe7U,
  0x3df0e73f3de2bad0U, 0xbd9393363d85126cU, 0x3d90f2133c508a1eU, 0x3bdd462a3d8878cdU,
  0xbdbc09013e1d0cfbU, 0x3db93faa3e27102dU, 0x3d90bd63bc40053aU, 0x3d82e2c4bd800f01U,
  0x3e1f6de4bd6c3548U, 0xbd06a56e3c394dd1U, 0x3d4a31c93dd03c1dU, 0x3e0d8de83d6b2fb8U,
  0xbd84d73d3df34603U, 0xbd8094e7bdab5632U, 0xbd2b4f453d725e13U, 0x3e0793523e03ef3cU,
  0xbd8c6c313e0351c3U, 0x3d515c6b3cc521daU, 0x3d70008f3dacff63U, 0xbd3f8029bd27ce25U,
  0x3e0910ac3d7564e9U, 0x3d766f633ba454c3U, 0xbdbea2e3bd8f0546U, 0x3e2234433dbc4eafU,
  0xbd9ef5bebc82394fU, 0x3e04ed1cbd96ddffU, 0xbdac02b23e321387U, 0x3d862199bd83685cU,
  0xbdc91663bd438550U, 0xbc4402fb3e235fdfU, 0x3d403cbe3cc62a32U, 0xbdb645bb3dfe9e81U,
  0xbd6ead22bd23166aU, 0x3e31dc5d3bd787e9U, 0x3cdb8347bda657a5U, 0x3d9fa49f3d3040afU,
  0xbc90e8403dc278daU, 0x3df69c9a3e0f2055U, 0xbd289ccfbcc0e5acU, 0x3e084e5c3c6e5a59U,
  0x3e14c8e6bda1736eU, 0x3d3ce6093e4239cdU, 0x3d58705f3d66010bU, 0xbd132d7e3dfbd49fU,
  0xbda3a2d1bd4b1d8aU, 0x3d8cc51ebcd59fe3U, 0xbd9287cf3d5ff42fU, 0x3d1cbc7b3dbe1a02U,
  0x3b64c18b3da60c47U, 0x3d97d732bd9a42dcU, 0xbdab1c64bd6889fbU, 0x3dcfdf893d121f21U,
  0x3cbf7bb63bd63ec1U, 0x3de60c883dbba889U, 0x3e16d85b3d9fb6e5U, 0x3e1702c83d755e16U,
  0x3dfc277fbb00e0e6U, 0x3e171746bd057c8bU, 0x3cda7de63b72c1e5U, 0x3d7032b2bd6f822fU,
  0x3e315ad83971aa46U, 0x3d98636b3df10b3dU, 0x3d4161b73e34bc4aU, 0x3d10f4a5bcd58dfdU,
  0x3e19f28e3d46f471U, 0xbdb46afd3e176fc5U, 0x3e01c532bc08280aU, 0xbda1055bbd99d80eU,
  0x3d942de63dd4173fU, 0x3e237021bdbdd145U, 0x3e03778ebde31bcfU, 0x3cd749163e2d8924U,
  0x3dd932863e1740dcU, 0x3d885e6e3db37eb0U, 0xbdc3845b3c39fccaU, 0xbd692633bd8491ceU,
  0x3e10c9e43dfa8090U, 0x3cc43e403ceb10feU, 0xbd6c24483d430f35U, 0x3dfd3b61bdda99d2U,
  0x3d79590cbca870d2U, 0x3e2f3debbd0fef56U, 0x3dfbadabba1425d0U, 0x3dfac0cb3dde7d7eU,
  0x3dce4dd1bd94b928U, 0x3e1f69643d87b001U, 0xbd8a0a99bd8151deU, 0x3e1e42d2ba121499U,
  0x3c1ca643bda68285U, 0xbdb230913e0bc41aU, 0x3ce15b59bb7b5c25U, 0x3cb1e930bca17ba5U,
  0x3df8b1fdbbfe9361U, 0x3de7bbd53dd13cd5U, 0x3e2495b73d076055U, 0x3cecf789bc24354cU,
  0xbd0cf3cf3d209e4aU, 0xbd1605853d562669U, 0xbdae212f3df5954cU, 0x3e02e99abd91f9d9U,
  0x3d093c513d96a52aU, 0x3d80ab903e19d0eeU, 0x3dfff1663e1cfc9eU, 0xbda450d43b902cbfU,
  0xbd3b0f773cc62964U, 0xbcb02b9abd9d5f78U, 0x3da5e460bcd2919cU, 0xbd4e5f5b3caab785U,
  0x3d13371f3cf401dfU, 0x3d77a76dbbe6ef85U, 0xbdeed33c3da7ec40U, 0x3e2fa8a0bd47bc88U,
  0x3df1e0653e031574U, 0xbc306470bcf5791aU, 0x3e329756bc395ce3U, 0xbd3f03fdbdf48122U,
  0x3d36d817bb4955f7U, 0xbd3169c93de84d77U, 0xbdb0bc183d340e96U, 0xbc25ddb3bd07eb14U,
  0x3d4a7b15bbdaabb2U, 0x3e0a0e96bc05a1ebU, 0xbcd34c34bc35c3e3U, 0xbd554506bd87b5c1U,
  0x3dde25013daf8929U, 0x3d81ad24bd5ed230U, 0xba0756fa3e0faa56U, 0x3d018165bcd1515bU,
  0x3ce4d8143c479534U, 0x3e1503893da2d541U, 0x3d91685f3dda9a34U, 0xbd0a674b3d00ebe9U,
  0x3e0b610b3d50648bU, 0x3e18b7303dc5afc9U, 0xbdff0e813caec64fU, 0x3daf50093b106eefU,
  0x3df608a3bc9431c5U, 0x3df36e173e36086dU, 0xbd41ab2e3cf5bcfaU, 0xbd870ae23d193d5aU,
  0xbd67b27e3e108165U, 0x3e0fcd313e1fdb21U, 0xbca0fd47bd8b3024U, 0x3d91f26b3dbb34dcU,
  0x3d97c8693ce9bf33U, 0xbd53e0883dd29e58U, 0xbd8309813e3931f7U, 0x3e1b5dc63d37cffcU,
  0xbd69b1ab3d7d77c1U, 0xbdc3084d3d6ecfd1U, 0xbad76c603c49bf5eU, 0x3d363ec5bdf3bce5U,
  0xbdcff1ec3d3d8a4bU, 0x3e2d0efbbd980f11U, 0xbd1fa475bd1e3f1dU, 0x3cd409cc3e1c2f86U,
  0x3de7c6773daa91f3U, 0x3df1d6b9bdd3b197U, 0xbd26327bbd117f06U, 0x3d8ff3253e1c26adU,
  0x3d8c57afbdd5e766U, 0xbcafe446bb5a3b4aU, 0x3e2f1bd33e158270U, 0x3df91ea8bd68e6caU,
  0x3d91a4f73e2ecc37U, 0xbce180113dc16dd6U, 0xbcee7b04bd0d34f6U, 0xbd42716f3e1aa3c1U,
  0x3dfd5b203d5fcd03U, 0x3d29ef3ebd290fabU, 0x3ddadf583ba5719bU, 0x3e366fcabcecfec8U,
  0x3dfec998bd981414U, 0x3bc6a1463e338a57U, 0x3df2a2e93c66163cU, 0x3cb5e8fbbdb85fabU,
  0xbd5df3c53e20fdb2U, 0x3e39cd283d3b3f7fU, 0x3cc353aebc954f44U, 0x3d981b353de57b89U,
  0x3e2810df3dbdcc17U, 0x3d6d4c87be042bdfU, 0x3ba53776bd6e10d4U, 0xbd68c2243de4ebd8U,
  0x3da8093f3d248cf0U, 0xbd2f6d50bc8c17cbU, 0x3d04b408bc955156U, 0x3cfb61443da81ebaU,
  0x3d4d79443c765970U, 0xbc19bb703d81b86cU, 0x3d89c8983cd78f50U, 0xbd1b3f92bdb01bb5U,
  0x3de5d018bdf4c2a4U, 0xbd5d59aebd0d0430U, 0xbd04bfe43c103c50U, 0xbd7e617a3c0653a0U,
  0xbcce9760bbf56e00U, 0x3dd8d924bd05ff1aU, 0xbdf9ad923e004ca5U, 0x3d9b5b78bda90ea2U,
  0x3cb7d5183df297acU, 0x3bbdfa00bd68f17cU, 0x3d4648343cfae598U, 0x3d6b70a83c415630U,
  0xbda11c7a3df7ff82U, 0x3daee9ba3e008381U, 0xbd1dd7f2bdd042cdU, 0xbd89f1f3bdcdfa1dU,
  0x3e03163d3d821accU, 0xbde0bfe8bce22ed0U, 0x3cbb5a58bdb2e6a8U, 0xbd561f22bc4197a0U,
  0xbddf88debbde92b0U, 0x3d8d01d6bd003c7eU, 0xbdc92acebd9e5b76U, 0x3b970140bde1371bU,
  0x3bdce1003def6478U, 0x3dbf18c0bd7344d0U, 0x3d0bd4a0be060080U, 0xbdf7f6a8bdf1c21cU,
  0xbdbd8e1bbe032352U, 0xbd313f6cbd9f2664U, 0xbdb18eea3cb8e528U, 0x3abd1d00bdca1a36U,
  0x3c90bb60bdfb60c0U, 0x3d2d7b14bbf65320U, 0x3d2b8be0bdc206a8U, 0xbd033cb2bd91f31aU,
  0xbd22ccfebd0b1998U, 0x3cb5ea38bc83d27cU, 0xbced8c383dd41094U, 0xbd60d3be3df57d62U,
  0xbe02d6ee3c09a860U, 0x3bc7f6c03ce216b8U, 0x3dd159203cfa99d8U, 0xbc6e1b783d80588cU,
  0x3d25743838bc5800U, 0xbdcec120bd01c812U, 0xb84bc0003dfc929eU, 0xbcb9bc8cbdcd1fc9U,
  0xbdef149fbd9534d1U, 0xbd2161ea3e05b40fU, 0xbd89a5c83dced23eU, 0xbd728b8cbde9e50cU,
  0xbd08e2803d3fb8c4U, 0xbcf3eb4cbb86cb00U, 0x3ae07e003d444e84U, 0x3ddecdfabe02f7bfU,
  0xbd7f7704bc37fb70U, 0xbdc7cad53dfdf972U, 0x3dcd14583c500300U, 0xbd0b50e03ce0e950U,
  0xbd058334bdf072cbU, 0x3dbe14c0bc0dc040U, 0xbcf45fd03c9592e0U, 0x3d94f0a63ce352c8U,
  0xbb9a04c0bc8694dcU, 0xbd8d1a663daf674eU, 0xbba9cc00bcc1e8e4U, 0xbc2edd583dfef8d6U,
  0xbc9ed7183de88e84U, 0xbdc83fb43e01c651U, 0x3da8c1fc3df35ca0U, 0x3dd030ea3c05bf70U,
  0xbd340e223b91e540U, 0xbdb12ee0bc41ab48U, 0x3d625af03c1e5160U, 0xbd978d163ddcac64U,
  0x3d922338bd6e496aU, 0xbdc947cfbdfde101U, 0xbda89e92bd4cb69aU, 0xbd9933c83bdc3e80U,
  0xbe029e1fbd5d303cU, 0xbc87d580bd4b85fcU, 0xbe0605b0bc13e388U, 0x3dcad05e3da507c8U,
  0x3dd0216abdca04beU, 0x3d5524fc3d99eee0U, 0xbe02b8abbd66903cU, 0x3dc49162bb8a87e0U,
  0xbca2cbf8bd19815aU, 0xbd1f7308bd2cd1fcU, 0x3d9a56debd1ec6e4U, 0xbdfc9bb0bdb70627U,
  0x3d8d61c6bdcfb4dbU, 0xbc48ebc0bc4bc850U, 0xbc7a86f8bdb4c695U, 0x3e0031d13ccd2a48U,
  0x3dfa42963e048b09U, 0x3d700c943e0061efU, 0xbdc3bb8abba37680U, 0x3d87b5da3d928180U,
  0x3d9d302cbe0430a3U, 0x3df1dd3ebd892e8eU, 0xbb0b8980bd183246U, 0x3dde29f8bdd01c3eU,
  0x3dff28be3d20b558U, 0xbd9c50b43db46512U, 0xbd2a8b26bb2e02c0U, 0xbca13064bd9caae6U,
  0x3db42150bdc98366U, 0xbda0a946bcf2927cU, 0xbda454ab3d3c2a44U, 0xbb6aa340bdc4ad23U,
  0x3d9303b6bd56a1f8U, 0xbc8e9bf03da4ba8cU, 0x3dbf1cf43e013f79U, 0xbc9ca790bd301238U,
  0xbd2042b8bd884f83U, 0xbda746c43d0e9d04U, 0xbd838238bdd1c4ffU, 0xbd1346003c27e330U,
  0x3daa8468bd95ae8cU, 0xbd9ab236bd977210U, 0x3daf4b7abdea6d16U, 0xbde2f954bb8d80a0U,
  0xbd7c8e723dd851c2U, 0xbddfd96c3a36d800U, 0x3c0c4be0bcd41d80U, 0x3de39efcbdacc961U,
  0x3d1facc43dde6f66U, 0xbdf588f73cad0ca0U, 0xbcf571b83d1163f0U, 0xbe0190fa3c8b1618U,
  0x3d7ea5983de31710U, 0x3d4558d4bde3f616U, 0xbca9d7f0bdcc863cU, 0xbdf0dccdbd40e162U,
  0x3c17a320bcda1c44U, 0x3ad11d003c1d45e0U, 0x3d449530bddc59ecU, 0xbe01d5f83d198cd0U,
  0xbe0046223d2d8858U, 0x3cbb09c0bdc6e46dU, 0xbd60ebe6bdfd0021U, 0xbcbb72d43d975348U,
  0xbcb1f86cbe03e079U, 0x3d56c2903d594f74U, 0x3df18a0a3b13c9c0U, 0xbc5a21d8bd209ebcU,
  0x3b18d1003b2bc440U, 0xbd82689bbe02e0dbU, 0xbde9660c3d2067e8U, 0x3d2d6328bd6ff31aU,
  0x3be93f00bd74b110U, 0xbdc1f6243d949c6eU, 0xbdd6128c3d4db5c8U, 0x3dcbdf1ebdc44a5aU,
  0x3d28d8b03d0b821cU, 0x3de1b766bdcc2e9cU, 0xbdab9cc33d2d1558U, 0x3de65bd0bdd54427U,
  0xbdbeb3643d84ca76U, 0x3d025280bdf3997aU, 0x3dbe5ae23d902f0cU, 0x3a99e3803aba9d00U,
  0xbaec9680bd9a01f6U, 0xbc395f10bcb26ba4U, 0xbd918cf93bc61080U, 0x3d9f0548bdf2b0c7U,
  0xbdf7ecbebd8b2ad8U, 0x3d8defd63d59b6a0U, 0xbde58bdcbd1d34ceU, 0x3d3060483ce4c3d0U,
  0x3d90eb323d3dae20U, 0x3d9f83343dd34202U, 0xbd321fac3de83dfaU, 0x3cc16778bdc02389U,
  0xbe058b853d5220a8U, 0xbda56455bdedb726U, 0x3d76dd10bcba3380U, 0xbd6d37043e02c787U,
  0x3d95fc80bdeca83dU, 0xbd4ac8783da170c2U, 0x3d8035ee3dbb1b96U, 0xbb630e80bdcedb5dU,
  0x3d1e5d903c9276f8U, 0xbd0bd8223d80b7d8U, 0x3c9b48a8bd5b3a26U, 0x3c26a400bbbfdda0U,
  0xbcbd4128bda24d26U, 0x3c99dba03ab2e880U, 0x3cb5c9c03d4b4e04U, 0x3e00df9fbd2345a4U,
  0xbdeaef54bd8a08eaU, 0xba425a00bce6af64U, 0xbd0f66dabdf06272U, 0x3dce89a03de405a6U,
  0xbc8324383df52a36U, 0x3d79d8503dfd0892U, 0xbcaa95b8bd87b464U, 0xbb8996003d848f34U,
  0xbdbb572d3e002ad9U, 0xbdfc64edbd9cd888U, 0xbd2eda68bcc9454cU, 0xbda3d60e3d6da250U,
  0xbdac4f1b3dd269c6U, 0xbdbc1530bd795cc0U, 0x3de1fc62bc515570U, 0xbd96c1a2bde0f7b4U,
  0xbd88bd7a3dd23060U, 0xbd827c4fbdb8cf2fU, 0x3da425babc137070U, 0x3d93e72cbde82ff4U,
  0x3d7a05e43dc34eb0U, 0xbd6b41a6bd55018aU, 0x3d0540e43e01250fU, 0xbc8e3730bdff9bdcU,
  0x3d78cd203d1c652cU, 0xbdfcb8763db5290eU, 0xbdf720d53d04ac38U, 0xbdca79773d94c9e6U,
  0xbd46d7063d204640U, 0xbdb3fcb4bd9ed8e0U, 0xbdec4be6bc12eae8U, 0xbd6192583d1b3ed8U,
  0xbde254aabdc34ec8U, 0xbca3d2b03d37788cU, 0xbdb9909e3d766c4cU, 0xbe04d2bbbdb8a722U,
  0x3e0529ebbdf6dcd0U, 0x3d332f7cbe029d8dU, 0xbe025c22bde64a44U, 0xbcf4d1bcbd730818U,
  0xbc83afb83cc64a90U, 0x3ddba9cabdb88ec0U, 0xbdc01b663da2f8daU, 0xbb536680bd593858U,
  0xbda63e723dc2ec70U, 0xbdd7111cbd4a4c26U, 0x3dd51c403d258a50U, 0xbc3647b83d73621cU,
  0x3dd269343d6488f4U, 0x3df70c723a479600U, 0x3da84fc03d295578U, 0x3dcd586a3d6f46dcU,
  0xbd397cd0bdfca18cU, 0xbdda052c3d1cfd40U, 0x3a210500bdd27062U, 0x3df2038a3ccddb48U,
  0xbc2baae8bd9f932dU, 0xbdf1e0bbbd049610U, 0xbdfb206abde0263aU, 0x3d723a04bdc0b8bbU,
  0x3e003791bd81b725U, 0xbdb7b1ac3d398730U, 0xba90e400bd77de1cU, 0x3de1561a3e012335U,
  0xbc8479acbca42160U, 0xbda8c5363d8f32a0U, 0xbda35e5abd94ae90U, 0xbdcc00d23de8e248U,
  0x3ca8e7b03d1d1ec4U, 0xbdde88363ade6700U, 0xbd92453a3df13ac6U, 0x3d9fc6783cfbb6e0U,
  0x3d2492603d7042a4U, 0xbda5ec34bddaeaf4U, 0x3deb8ca0bd8fce7cU, 0x3e03df35bd31c49cU,
  0xbbcfe190bdc5813aU, 0xbc89c418bb9afb60U, 0x3da71656bde4f200U, 0xbd49994c3c4b0510U,
  0xbc0250403d433940U, 0x3dc17a323de31f6aU, 0x3cf1b350bdc2e74cU, 0x3db51574bc5a2cb0U,
  0x3d955976be057942U, 0xbd700314bbec2340U, 0xbe020207bdb46c74U, 0x3da8c4103ac13380U,
  0xbd5bde5ebd0d5aa4U, 0xbc98aa2cbd222544U, 0xbce9a818bcf8cd18U, 0xbd159ea4bd9eb825U,
  0xbd92b54e3de9c3dcU, 0x3df0ea883deaf178U, 0x3cae3bc83de22996U, 0xbb1d61003e02e20bU,
  0x3cbdc0f03dc4423cU, 0x3db55e4cbddb1eefU, 0x3d606114bdd815f5U, 0x3d0fba203e028e51U,
  0x3d0238603e0113c9U, 0x3de542703c4474e0U, 0xbb9caa80bcbbc038U, 0x3d1edea83d4c2cbcU,
  0x3d9990e23d597050U, 0xbdbbcd1c3dd3c978U, 0xbd0e432cbda8fe8fU, 0x3dd28dc8bdd718fcU,
  0x3dae79843b5c5800U, 0x3c5a00f0bc82ad74U, 0x3a72e9003d84e948U, 0xbcf54760bd7f7036U,
  0x3c42d7a0bdabab04U, 0xbd70cee03df448caU, 0xbd2fafca3a8cff00U, 0x3e01cdf7bdc1ade2U,
  0x3de46f00bdf12869U, 0x3b630e00bcbe5c4cU, 0x3d66b41cbdb5480aU, 0xbdce9a74bc33cf10U,
  0x3d52a2d83c59d3d0U, 0xbdeebb3ebda69daeU, 0x3e02ea23bc596e98U, 0x3d6506d0bdfb2f64U,
  0xbcc97a24bdc6f7f4U, 0xbc192de0bdb7afbaU, 0xbd805574bdb0ee96U, 0xbdee6b543de1a284U,
  0xbdbac23abda44230U, 0xbde14d1e3dc62b6cU, 0x3da0c9e8bc7e90b0U, 0xbce8bc3cbdcd12e8U,
  0x3d8b0dd8bdcaaf50U, 0xbdb97a9abe03a9fbU, 0xbda7fcb5bdcbe6c8U, 0x3ddb1a0ebdcf14ecU,
  0x3c16a580bd912e60U, 0xbdfab21f3db27772U, 0x3dc4c3a4bdc460b9U, 0x3df14a74bdc2db66U,
  0xbdaac8003b98d360U, 0x3dd080b2bdb7b6faU, 0xbc8822183b4b3bc0U, 0xbc02e8203c373ea0U,
  0x3df4fae23daa2d56U, 0x3d23f608bdc631d2U, 0xbe02967d3dc80d1eU, 0xbc100078bdb9fc68U,
  0x3d506fa4bd9461daU, 0x3d79c734bd9e9a2eU, 0x3df8e6ba3d470bb0U, 0x3d9f7504bd3bd754U,
  0x3db62fc2bcebd8c0U, 0x3d15c998bd22eb44U, 0x3d86803c3d6692e0U, 0x3cfb05583cd79d20U,
  0xbcdfcb803dc30c38U, 0xbe00cecf3d8f5c92U, 0xbd3047923dcf496cU, 0x3e01a523bd1690ccU,
  0xbdbe4411bdfe658aU, 0xbdccabf63d8f95b6U, 0xbcb478583cd300c8U, 0xbe03e9ebbdcd5154U,
  0xbced0c3c3df82c3eU, 0x3d7687cc3d896f30U, 0x3dd879c2bd17b732U, 0xbde4eca23de7687aU,
  0x3d145308bd362e72U, 0x3ba992a03df2d348U, 0xbbe2bae0bd8063ceU, 0xbdf087be3de1e194U,
  0x3d4e80083d923fe4U, 0x3dfc8d0ebc6c34c8U, 0xbd5a1e8e3e042c1dU, 0xbd93cd3cbe04c802U,
  0x3da39438bd1b116aU, 0xbd42c840bd2f2a2cU, 0xbdbfc526bdec3559U, 0xbce60c40bd0d8250U,
  0x3c9f1288bd83a41dU, 0xbdfcda4a3dd7b61aU, 0xbdb04d1ebe014cbfU, 0xbde8308f3ddcf402U,
  0xbd918e223c937000U, 0x3b7a2b003dd2671aU, 0x3d9e94fe3dc9cffeU, 0xbd7c4a763d6fd488U,
  0x3db696b2bdeefaedU, 0xbd01e4483d88c7e8U, 0x3d0ed6603d8f5872U, 0xbd99e66f3d65d7a8U,
  0x3d142ecc3ccaf5a0U, 0xbcbc2398bd90c253U, 0x3e02bddfbbc465b0U, 0xbc9128803d1185a8U,
  0xbdacab2a3dd7f8ccU, 0xbd9b8652bc971418U, 0x3da357803abb3900U, 0xbdb3095e3d465570U,
  0xbe01739a3cc8d8c0U, 0xbda329a8bd92dc06U, 0x3d2760743da183d8U, 0x3d80c722bdc694a0U,
  0xbdf1b05a3dc615b0U, 0x3ca355503b77a080U, 0x3d7e5e4c3d1e8438U, 0x3c605bc03debead0U,
  0x3bf5e4e0bda081feU, 0x3dd0ec743d0f7078U, 0x3bd3a4203c75d9e0U, 0xbd4cc2f03ce530c0U,
  0x3c8b59f8be001186U, 0xbc89f174bc9d5c80U, 0xbda7db95bd4b4b5eU, 0x3df846e6bc28a388U,
  0xbd4eda623df273c4U, 0xbd92d7a43c4a67b0U, 0xbd9420ddbd0b8b60U, 0x3d6f1e40bdee67f9U,
  0x3d81c1ccbd9badccU, 0x3d5785ecbcbccbd8U, 0xbdf59f53bd942b0bU, 0xbe0255cf3d641ddcU,
  0xbd5907f0bd75a046U, 0xbc829a04bd0a7778U, 0x3d376054bdd2eb0dU, 0x3d7242e83dc07ef6U,
  0xbda854ca3d9a6c6cU, 0x3d716d083d143b54U, 0x3d64700c3c8bdee0U, 0xbded355dbe0542e3U,
  0xb81f30003d820abeU, 0x3d452eacbd9f4111U, 0x3a85b680bdae893aU, 0x3e011afdbd932792U,
  0x3ddb52e63d53fc78U, 0x3d7171e8be020d4cU, 0xbbfff4003d7002e0U, 0xbdf5aa743ddd0e32U,
  0xbdd572e53dcc06dcU, 0x3de5bb623dcc95b0U, 0x3ddfba9a3df8b05aU, 0x3e0010efbd2cd344U,
  0xbd00e8c4bcc73478U, 0xbde982b8bb02b540U, 0x3c7946703db7b656U, 0xbdb000c53cbd84a8U,
  0xbe05288c3dc4101eU, 0xbbba4720bdc9895fU, 0xbd9d1929bdc2de65U, 0xbda94338bde7af48U,
  0x3cbb8a00bd9fad65U, 0xbcd7b374bcfaa720U, 0x3d914ef63cce3420U, 0xbd97f05dba909680U,
  0xbd79eb343da609bcU, 0xbd96a66b3dc1c1f6U, 0xbc70a3703d97a4d0U, 0x3c963058bb777700U,
  0x3d1140c83dc592b0U, 0xbcd757ecbd3612fcU, 0xbdebb84f3ddfc368U, 0xbd872ab03dd5a998U,
  0x3df714323d20b584U, 0xbd8c7c1a3dad59ecU, 0xbdb9b558bde95734U, 0xbddedeb0bd9d2faaU,
  0x3de425683dc7f5d8U, 0x3d45d224bdae9e60U, 0xbd8b5ee3bd70d812U, 0x3d9e3390bdda4eebU,
  0xbd857561bd924b1aU, 0xbd4f04c4bd37d706U, 0x3d3c4008bd65334cU, 0xbd21e05ebdcd2b53U,
  0x3dd52aacbc9e05f0U, 0xbd7511443b218580U, 0x3ce36d08bd8da81aU, 0xbdd987e73c8cccb8U,
  0x3dd2382e3b34c740U, 0x3da8d3b23d9a2202U, 0xbd8bce4fbd1db30eU, 0x3d4757683df4109eU,
  0x3cadd0c0bc3c5610U, 0x3da3071abd97b914U, 0xbd5d59e03d90491eU, 0xbd691da4bc59d300U,
  0xbe02f1a43df18592U, 0x3db05bc83ddd6538U, 0xbdade0fbbd6a4202U, 0x3cc3c588bdf825e8U,
  0x3dc866ea3c3b13e0U, 0xbca6ea28bd421d42U, 0x3d9e1aaabd94888cU, 0x3df8f0aabd98f43eU,
  0xbda75946bd8cf249U, 0xbc821da03d4e1510U, 0x3dc3d23cbd80ab0cU, 0x3d07ff80bd4617deU,
  0x3c7dba80bcb67e60U, 0xbd6f860a3dfbf67eU, 0xbd4cb8e43d6db29cU, 0x3df752a23d0e151cU,
  0xbde029a6bde49157U, 0x3dd83aee3dae6356U, 0xbcded828bd8eb7dcU, 0xbde3e93e3d395908U,
  0xbdfe52ea3c522230U, 0x3b0b7e00bd9cc572U, 0x3dbc4ace3da6f8d4U, 0x3dad17903b4407c0U,
  0xbb71c600bd512e04U, 0xbc9be8583cb03328U, 0x3d170478bd6ede40U, 0xbd8c3961bd99a9ccU,
  0xbcd29698bdb9b803U, 0x3c43ef703d775e6cU, 0xbdf6088fbb90b1e0U, 0xbcde2b343d8c103cU,
  0x3d45bc70bd8fd9a5U, 0xbdd7df50bc078ac0U, 0x3d8c5d343dfb7a56U, 0xbdf119203cb7a2c0U,
  0xbd4ca92e3e035737U, 0x3cca99c8bd4f1008U, 0xbdb8bf70bdc8a243U, 0xbce3d1743cd13e70U,
  0xbbc08d203ccb7300U, 0x3bf699403e053399U, 0xbd52c4543d896b74U, 0x3b9b8c40bae06300U,
  0x3dcadfa83e021df5U, 0xbdb35c16bcb1b5b8U, 0x3de32534bdd0c0a8U, 0xbcd27be4bd0333d4U,
  0x3cdabc10be05b284U, 0x3debecaabded5ee7U, 0xbd98e257bd71d062U, 0x3d8a61fa3d47af20U,
  0xbdc737033db7679aU, 0xbd90e0abbdf2f27dU, 0xbdc3f8bb3db00f30U, 0x3d4629cc3d34bed4U,
  0x3b26f8c03d42a3a8U, 0x3d9f8f483d1f742cU, 0xbdbf957abde683dcU, 0xbdae71343c194010U,
  0xbd145164bcedbee4U, 0xbcb12bb8bd99f714U, 0x3cddef283dd16b3eU, 0x3dee03e0bdf2d49bU,
  0x3dbe93f4bcb6f178U, 0x3dbb41b03d6ef930U, 0x3d832cd6bba7f200U, 0x3dc1f368bd808e81U,
  0xbd5cf8dabe0440d3U, 0x39bb8200bc978360U, 0xbd998efd3cf88620U, 0xbd2eb480be0198daU,
  0x3dee58043d7fbe30U, 0xbddf41de3d1518dcU, 0xbcc97e00bdc4f7c8U, 0xbd91b2e0bc784160U,
  0xbd80e6083a913b00U, 0x3d1988b83de4475cU, 0xbd3292563d09303cU, 0xbde5c414bdb5c254U,
  0xbde2eb62bc555d28U, 0xbd4eb5423d76d380U, 0xbcc4be603dc947ecU, 0xbbc00640bdd0e9d6U,
  0x3d6260d4bded682fU, 0x3dc19a78bd072b54U, 0x3dea0926bcc15178U, 0xbdae5af2bd7b3d4eU,
  0x3c82aec83da716beU, 0x3ddc29d63d332e14U, 0x3dffc866bd787f7cU, 0xba489e003c272810U,
  0x3d0057d4bd5ad954U, 0xbc0b19803dc7da0eU, 0x3df6077a3dbcd376U, 0x3db8e40cbd066564U,
  0x3cb8ab283c2898d0U, 0x3d2f5454bdca2600U, 0x3c8f2a583cd4ecf8U, 0x3dbcea0c3df1df4eU,
  0xbd9ba7a4bd993accU, 0xbd69895ebd6175acU, 0xbdedf088bd3f00e6U, 0x3df84a52be00c438U,
  0x3e03fcad3d64fc78U, 0x3da365bcbc9b43b0U, 0x3d4d60e03db55f7eU, 0xbdebf7b6bd9052c6U,
  0xbc367958bc1c14e8U, 0xbdf68530bddd0678U, 0xbdea55913c3af3a0U, 0xba17a2003dd8d566U,
  0xbdc315803cf81650U, 0x3df05d56be050cb7U, 0xbddaf79bbd5063e4U, 0x3b48be403dcde066U,
  0xbd06e10e3ddf748eU, 0x3d9b3198bd162af0U, 0x3cdb94483c4bf620U, 0x3d8449063d4b3f28U,
  0x3c65f4f03d16386cU, 0x3de805dc3d376170U, 0xbe0059ad3cbc2fc8U, 0xbb985ee0bcf84884U,
  0x3dadde54bdc52722U, 0x3e0439bf3cc591f8U, 0x3d0001a4bde4b2c2U, 0xbc97cd4cbdc0fdaeU,
  0x3c087d403d0a62b0U, 0x3d1c7ed83d6ae044U, 0x3d95941e3dc7c09eU, 0xbdd07e643db9927cU,
  0x3d0053c4bdd0e121U, 0xbdd8f0bebd8e5bd2U, 0xbd29e3223d5bfd80U, 0xbd9274c9bc3ac418U,
  0xbdcc0cb3bdabb1a5U, 0xbdeada44bd1619f2U, 0xbd37948a3dec1b8eU, 0xbc61fb583dd88ef4U,
  0x3df2a774bd8d2bfeU, 0xbdea86e53da901d6U, 0x3d4897743d8bb208U, 0xbe0293e1bc99bb8cU,
  0x3e05f6d1bd0d3040U, 0xbce103d4bd19107eU, 0x3dcfe1b63dd7139eU, 0xbe02bc2a3c5c6160U,
  0x3dd31f543d9f25b4U, 0xbc765b80bdfbe23aU, 0xbd8ab9f73d31297cU, 0xbdddff9ebd6b7abcU,
  0x3d420670bd9041b0U, 0x3d044168bd481baaU, 0xbc2971783d105274U, 0x3dbea008bd56c320U,
  0x3dbca3823d30dac4U, 0x3daabe50bd6832daU, 0xbd09e91c3dbcc310U, 0x3cdc75b03d75f3d8U,
  0x3d8994b6bdb591b4U, 0x3d284074bdae18f8U, 0x3dbb51e83d582040U, 0xbdc2603e3dc31728U,
  0xbc89bff8bd8913e9U, 0x3d5ad588bdf51e35U, 0xbdf9c88bbd80d6faU, 0x3dfa302e3dc2f720U,
  0x3d0fcf68bc6101f0U, 0x3cd78490bdf9af74U, 0x3bf3fc803ca7bf50U, 0x3deadf7c3bde9ec0U,
  0x3d9c0368bd532fe4U, 0xbc29cb703dac1526U, 0xbdeac9dabd7c9d7aU, 0x3cd426e83cc11f10U,
  0xbc7f57903d8fdd5cU, 0x3bf24f00bd0422e0U, 0x3d47b50cbd9a5782U, 0xbd236eb0bd406eb8U,
  0xbdaf1a62bc3114f0U, 0xbe00cbdb3ddbd278U, 0x3c8f29e0bcc3a33cU, 0x3dafec04bdb3b920U,
  0x3dc2e7ba3da0b7a0U, 0x3bb4fc80bdaf3439U, 0x3db96f08bb47fc00U, 0x3dccb926bd054e60U,
  0xbd057a24bcac09e4U, 0x3dd8caf4bde3c32cU, 0x3c88a8a0bdb6f9e1U, 0xbb89ef80bded3534U,
  0x3d17b2c03d9fa7eaU, 0x3d383a003de246b8U, 0xbdb9190c3cf1a830U, 0xbe049a693ddebf0eU,
  0x3d1b68c03bb94100U, 0xbd0ef0c0bc26a3f8U, 0xbde84814bd0d04d8U, 0x3cb3cb983d2d08a8U,
  0x3df762963def43d2U, 0x3db3e29a3c6cade0U, 0x3daf39cabe060ceeU, 0x3dc4db08be01d525U,
  0x3dca479e3df8f01aU, 0xbdd2d5513d8d1bd6U, 0x3deb65323d70e994U, 0xbddaff093d7b2d74U,
  0xbe003fb53c7e9890U, 0x3be739c0bda99cceU, 0x3db032dabd340398U, 0x3e03eaffbd0aa846U,
  0xbd939d543d0c7270U, 0x3d08631cbe0106abU, 0xba982a80bd8b731eU, 0xbd3404483d4623a4U,
  0xbdac35d2bd935caeU, 0xbdeb6df93d683d4cU, 0xbdbfa6c63d9e26e0U, 0xbb8043a0bd782d96U,
  0x3d580c94bc8d58e0U, 0x3bc06360bc860cb0U, 0x3d7950303d2eb310U, 0x3de0a2a23dda008aU,
